#include <cstdint>

#include "audio_preprocessor_int8_model_data.h"

unsigned char g_audio_preprocessor_int8_model_data[8772] = {
    0x1c, 0x0,  0x0,  0x0,  0x54, 0x46, 0x4c, 0x33, 0x14, 0x0,  0x20, 0x0,  0x1c, 0x0,  0x18, 0x0,  0x14, 0x0,  0x10, 0x0,  0xc,
    0x0,  0x0,  0x0,  0x8,  0x0,  0x4,  0x0,  0x14, 0x0,  0x0,  0x0,  0x1c, 0x0,  0x0,  0x0,  0x88, 0x0,  0x0,  0x0,  0xe0, 0x0,
    0x0,  0x0,  0x80, 0xe,  0x0,  0x0,  0x90, 0xe,  0x0,  0x0,  0xcc, 0x1f, 0x0,  0x0,  0x3,  0x0,  0x0,  0x0,  0x1,  0x0,  0x0,
    0x0,  0x4,  0x0,  0x0,  0x0,  0xe2, 0xeb, 0xff, 0xff, 0xc,  0x0,  0x0,  0x0,  0x1c, 0x0,  0x0,  0x0,  0x3c, 0x0,  0x0,  0x0,
    0xf,  0x0,  0x0,  0x0,  0x73, 0x65, 0x72, 0x76, 0x69, 0x6e, 0x67, 0x5f, 0x64, 0x65, 0x66, 0x61, 0x75, 0x6c, 0x74, 0x0,  0x1,
    0x0,  0x0,  0x0,  0x4,  0x0,  0x0,  0x0,  0x94, 0xff, 0xff, 0xff, 0x2a, 0x0,  0x0,  0x0,  0x4,  0x0,  0x0,  0x0,  0x8,  0x0,
    0x0,  0x0,  0x6f, 0x75, 0x74, 0x70, 0x75, 0x74, 0x5f, 0x30, 0x0,  0x0,  0x0,  0x0,  0x1,  0x0,  0x0,  0x0,  0x4,  0x0,  0x0,
    0x0,  0xc2, 0xf5, 0xff, 0xff, 0x4,  0x0,  0x0,  0x0,  0xb,  0x0,  0x0,  0x0,  0x61, 0x75, 0x64, 0x69, 0x6f, 0x5f, 0x66, 0x72,
    0x61, 0x6d, 0x65, 0x0,  0x2,  0x0,  0x0,  0x0,  0x34, 0x0,  0x0,  0x0,  0x4,  0x0,  0x0,  0x0,  0xdc, 0xff, 0xff, 0xff, 0x2d,
    0x0,  0x0,  0x0,  0x4,  0x0,  0x0,  0x0,  0x13, 0x0,  0x0,  0x0,  0x43, 0x4f, 0x4e, 0x56, 0x45, 0x52, 0x53, 0x49, 0x4f, 0x4e,
    0x5f, 0x4d, 0x45, 0x54, 0x41, 0x44, 0x41, 0x54, 0x41, 0x0,  0x8,  0x0,  0xc,  0x0,  0x8,  0x0,  0x4,  0x0,  0x8,  0x0,  0x0,
    0x0,  0x2c, 0x0,  0x0,  0x0,  0x4,  0x0,  0x0,  0x0,  0x13, 0x0,  0x0,  0x0,  0x6d, 0x69, 0x6e, 0x5f, 0x72, 0x75, 0x6e, 0x74,
    0x69, 0x6d, 0x65, 0x5f, 0x76, 0x65, 0x72, 0x73, 0x69, 0x6f, 0x6e, 0x0,  0x2e, 0x0,  0x0,  0x0,  0x9c, 0xd,  0x0,  0x0,  0x94,
    0xd,  0x0,  0x0,  0xc4, 0x9,  0x0,  0x0,  0x6c, 0x9,  0x0,  0x0,  0x48, 0x9,  0x0,  0x0,  0x34, 0x9,  0x0,  0x0,  0x20, 0x9,
    0x0,  0x0,  0xc,  0x9,  0x0,  0x0,  0xf8, 0x8,  0x0,  0x0,  0xec, 0x7,  0x0,  0x0,  0x88, 0x7,  0x0,  0x0,  0x24, 0x7,  0x0,
    0x0,  0xc0, 0x6,  0x0,  0x0,  0x38, 0x4,  0x0,  0x0,  0xb0, 0x1,  0x0,  0x0,  0x9c, 0x1,  0x0,  0x0,  0x88, 0x1,  0x0,  0x0,
    0x74, 0x1,  0x0,  0x0,  0x60, 0x1,  0x0,  0x0,  0x4c, 0x1,  0x0,  0x0,  0x44, 0x1,  0x0,  0x0,  0x3c, 0x1,  0x0,  0x0,  0x34,
    0x1,  0x0,  0x0,  0x2c, 0x1,  0x0,  0x0,  0x24, 0x1,  0x0,  0x0,  0x1c, 0x1,  0x0,  0x0,  0x14, 0x1,  0x0,  0x0,  0xc,  0x1,
    0x0,  0x0,  0x4,  0x1,  0x0,  0x0,  0xfc, 0x0,  0x0,  0x0,  0xf4, 0x0,  0x0,  0x0,  0xec, 0x0,  0x0,  0x0,  0xe4, 0x0,  0x0,
    0x0,  0xdc, 0x0,  0x0,  0x0,  0xd4, 0x0,  0x0,  0x0,  0xcc, 0x0,  0x0,  0x0,  0xc4, 0x0,  0x0,  0x0,  0xbc, 0x0,  0x0,  0x0,
    0xb4, 0x0,  0x0,  0x0,  0xac, 0x0,  0x0,  0x0,  0xa4, 0x0,  0x0,  0x0,  0x9c, 0x0,  0x0,  0x0,  0x94, 0x0,  0x0,  0x0,  0x8c,
    0x0,  0x0,  0x0,  0x6c, 0x0,  0x0,  0x0,  0x4,  0x0,  0x0,  0x0,  0xf2, 0xf6, 0xff, 0xff, 0x4,  0x0,  0x0,  0x0,  0x58, 0x0,
    0x0,  0x0,  0xc,  0x0,  0x0,  0x0,  0x8,  0x0,  0xc,  0x0,  0x8,  0x0,  0x4,  0x0,  0x8,  0x0,  0x0,  0x0,  0x10, 0x0,  0x0,
    0x0,  0x28, 0x0,  0x0,  0x0,  0x8,  0x0,  0xc,  0x0,  0x8,  0x0,  0x7,  0x0,  0x8,  0x0,  0x0,  0x0,  0x0,  0x0,  0x0,  0x1,
    0x4,  0x0,  0x0,  0x0,  0x0,  0x0,  0x0,  0x0,  0x0,  0x0,  0xa,  0x0,  0x10, 0x0,  0xc,  0x0,  0x8,  0x0,  0x4,  0x0,  0xa,
    0x0,  0x0,  0x0,  0x3,  0x0,  0x0,  0x0,  0x2,  0x0,  0x0,  0x0,  0x4,  0x0,  0x0,  0x0,  0x6,  0x0,  0x0,  0x0,  0x32, 0x2e,
    0x31, 0x32, 0x2e, 0x30, 0x0,  0x0,  0x56, 0xf7, 0xff, 0xff, 0x4,  0x0,  0x0,  0x0,  0x10, 0x0,  0x0,  0x0,  0x32, 0x2e, 0x38,
    0x2e, 0x30, 0x0,  0x0,  0x0,  0x0,  0x0,  0x0,  0x0,  0x0,  0x0,  0x0,  0x0,  0xd4, 0xe1, 0xff, 0xff, 0xd8, 0xe1, 0xff, 0xff,
    0xdc, 0xe1, 0xff, 0xff, 0xe0, 0xe1, 0xff, 0xff, 0xe4, 0xe1, 0xff, 0xff, 0xe8, 0xe1, 0xff, 0xff, 0xec, 0xe1, 0xff, 0xff, 0xf0,
    0xe1, 0xff, 0xff, 0xf4, 0xe1, 0xff, 0xff, 0xf8, 0xe1, 0xff, 0xff, 0xfc, 0xe1, 0xff, 0xff, 0x0,  0xe2, 0xff, 0xff, 0x4,  0xe2,
    0xff, 0xff, 0x8,  0xe2, 0xff, 0xff, 0xc,  0xe2, 0xff, 0xff, 0x10, 0xe2, 0xff, 0xff, 0x14, 0xe2, 0xff, 0xff, 0x18, 0xe2, 0xff,
    0xff, 0x1c, 0xe2, 0xff, 0xff, 0x20, 0xe2, 0xff, 0xff, 0x24, 0xe2, 0xff, 0xff, 0x28, 0xe2, 0xff, 0xff, 0x2c, 0xe2, 0xff, 0xff,
    0x30, 0xe2, 0xff, 0xff, 0xd2, 0xf7, 0xff, 0xff, 0x4,  0x0,  0x0,  0x0,  0x4,  0x0,  0x0,  0x0,  0x9a, 0x2,  0x0,  0x0,  0xe2,
    0xf7, 0xff, 0xff, 0x4,  0x0,  0x0,  0x0,  0x4,  0x0,  0x0,  0x0,  0x0,  0x1,  0x0,  0x0,  0xf2, 0xf7, 0xff, 0xff, 0x4,  0x0,
    0x0,  0x0,  0x4,  0x0,  0x0,  0x0,  0x80, 0xff, 0xff, 0xff, 0x2,  0xf8, 0xff, 0xff, 0x4,  0x0,  0x0,  0x0,  0x4,  0x0,  0x0,
    0x0,  0xff, 0xff, 0xff, 0xff, 0x12, 0xf8, 0xff, 0xff, 0x4,  0x0,  0x0,  0x0,  0x4,  0x0,  0x0,  0x0,  0x7f, 0x0,  0x0,  0x0,
    0x22, 0xf8, 0xff, 0xff, 0x4,  0x0,  0x0,  0x0,  0x78, 0x2,  0x0,  0x0,  0x0,  0x0,  0x61, 0x5,  0x0,  0x0,  0x0,  0x0,  0x23,
    0xb,  0x41, 0x1,  0x0,  0x0,  0x0,  0x0,  0xb3, 0x7,  0x0,  0x0,  0x0,  0x0,  0x0,  0x0,  0x0,  0x0,  0x74, 0xe,  0x80, 0x5,
    0x0,  0x0,  0x0,  0x0,  0xd1, 0xc,  0x63, 0x4,  0x0,  0x0,  0x0,  0x0,  0x34, 0xc,  0x3f, 0x4,  0x0,  0x0,  0x0,  0x0,  0x81,
    0xc,  0xf7, 0x4,  0x0,  0x0,  0x0,  0x0,  0x9f, 0xd,  0x77, 0x6,  0x0,  0x0,  0x0,  0x0,  0x7b, 0xf,  0xa9, 0x8,  0x1,  0x2,
    0x7f, 0xb,  0x22, 0x5,  0x0,  0x0,  0x0,  0x0,  0xe9, 0xe,  0xd1, 0x8,  0xdb, 0x2,  0x0,  0x0,  0x0,  0x0,  0x3,  0xd,  0x4a,
    0x7,  0xad, 0x1,  0x2c, 0xc,  0xc6, 0x6,  0x79, 0x1,  0x0,  0x0,  0x0,  0x0,  0x45, 0xc,  0x29, 0x7,  0x23, 0x2,  0x34, 0xd,
    0x5b, 0x8,  0x96, 0x3,  0x0,  0x0,  0x0,  0x0,  0xe5, 0xe,  0x48, 0xa,  0xbd, 0x5,  0x45, 0x1,  0x0,  0x0,  0x0,  0x0,  0x0,
    0x0,  0x0,  0x0,  0xde, 0xc,  0x88, 0x8,  0x43, 0x4,  0xe,  0x0,  0x0,  0x0,  0x0,  0x0,  0x0,  0x0,  0x0,  0x0,  0xe9, 0xb,
    0xd3, 0x7,  0xcb, 0x3,  0xd2, 0xf,  0xe7, 0xb,  0x9,  0x8,  0x39, 0x4,  0x76, 0x0,  0x0,  0x0,  0x0,  0x0,  0x0,  0x0,  0x0,
    0x0,  0xbf, 0xc,  0x14, 0x9,  0x75, 0x5,  0xe2, 0x1,  0x0,  0x0,  0x0,  0x0,  0x0,  0x0,  0x0,  0x0,  0x5a, 0xe,  0xdd, 0xa,
    0x6b, 0x7,  0x3,  0x4,  0xa6, 0x0,  0x0,  0x0,  0x0,  0x0,  0x53, 0xd,  0x9,  0xa,  0xc9, 0x6,  0x93, 0x3,  0x65, 0x0,  0x0,
    0x0,  0x0,  0x0,  0x0,  0x0,  0x0,  0x0,  0x41, 0xd,  0x25, 0xa,  0x12, 0x7,  0x7,  0x4,  0x5,  0x1,  0x0,  0x0,  0x0,  0x0,
    0xa,  0xe,  0x17, 0xb,  0x2c, 0x8,  0x49, 0x5,  0x6d, 0x2,  0x0,  0x0,  0x0,  0x0,  0x0,  0x0,  0x0,  0x0,  0x98, 0xf,  0xcb,
    0xc,  0x4,  0xa,  0x44, 0x7,  0x8b, 0x4,  0xd8, 0x1,  0x0,  0x0,  0x0,  0x0,  0x2c, 0xf,  0x87, 0xc,  0xe7, 0x9,  0x4e, 0x7,
    0xba, 0x4,  0x2d, 0x2,  0x0,  0x0,  0x0,  0x0,  0xa5, 0xf,  0x23, 0xd,  0xa7, 0xa,  0x30, 0x8,  0xbe, 0x5,  0x52, 0x3,  0xeb,
    0x0,  0x89, 0xe,  0x2c, 0xc,  0xd4, 0x9,  0x81, 0x7,  0x33, 0x5,  0xe9, 0x2,  0xa5, 0x0,  0x0,  0x0,  0x0,  0x0,  0x64, 0xe,
    0x29, 0xc,  0xf1, 0x9,  0xbe, 0x7,  0x90, 0x5,  0x65, 0x3,  0x3f, 0x1,  0x1d, 0xf,  0xff, 0xc,  0xe5, 0xa,  0xcf, 0x8,  0xbc,
    0x6,  0xae, 0x4,  0xa3, 0x2,  0x9c, 0x0,  0x99, 0xe,  0x99, 0xc,  0x9d, 0xa,  0xa4, 0x8,  0xaf, 0x6,  0xbd, 0x4,  0xcf, 0x2,
    0xe4, 0x0,  0xfc, 0xe,  0x17, 0xd,  0x36, 0xb,  0x57, 0x9,  0x7c, 0x7,  0xa4, 0x5,  0xcf, 0x3,  0xfd, 0x1,  0x2e, 0x0,  0x0,
    0x0,  0x0,  0x0,  0x0,  0x0,  0x0,  0x0,  0x62, 0xe,  0x98, 0xc,  0xd2, 0xa,  0xe,  0x9,  0x4d, 0x7,  0x8f, 0x5,  0xd4, 0x3,
    0x1b, 0x2,  0x65, 0x0,  0x0,  0x0,  0x0,  0x0,  0xb1, 0xe,  0x0,  0xd,  0x52, 0xb,  0xa6, 0x9,  0xfd, 0x7,  0x56, 0x6,  0xb1,
    0x4,  0xf,  0x3,  0x6f, 0x1,  0x0,  0x0,  0x0,  0x0,  0x0,  0x0,  0x0,  0x0,  0xd2, 0xf,  0x37, 0xe,  0x9e, 0xc,  0x8,  0xb,
    0x73, 0x9,  0xe1, 0x7,  0x52, 0x6,  0xc4, 0x4,  0x38, 0x3,  0xaf, 0x1,  0x28, 0x0,  0xa3, 0xe,  0x1f, 0xd,  0x9e, 0xb,  0x1f,
    0xa,  0xa2, 0x8,  0x27, 0x7,  0xae, 0x5,  0x37, 0x4,  0xc2, 0x2,  0x4e, 0x1,  0x0,  0x0,  0x0,  0x0,  0xdd, 0xf,  0x6d, 0xe,
    0xff, 0xc,  0x93, 0xb,  0x29, 0xa,  0xc1, 0x8,  0x5a, 0x7,  0xf5, 0x5,  0x92, 0x4,  0x30, 0x3,  0xd1, 0x1,  0x73, 0x0,  0x16,
    0xf,  0xbc, 0xd,  0x62, 0xc,  0xb,  0xb,  0xb5, 0x9,  0x61, 0x8,  0xe,  0x7,  0xbd, 0x5,  0x6d, 0x4,  0x1f, 0x3,  0xd3, 0x1,
    0x88, 0x0,  0x3e, 0xf,  0xf6, 0xd,  0xaf, 0xc,  0x6a, 0xb,  0x27, 0xa,  0xe4, 0x8,  0xa3, 0x7,  0x64, 0x6,  0x26, 0x5,  0xe9,
    0x3,  0xae, 0x2,  0x74, 0x1,  0x3b, 0x0,  0x0,  0x0,  0x0,  0x0,  0x0,  0x0,  0x0,  0x0,  0x4,  0xf,  0xce, 0xd,  0x99, 0xc,
    0x66, 0xb,  0x34, 0xa,  0x3,  0x9,  0xd3, 0x7,  0xa5, 0x6,  0x78, 0x5,  0x4c, 0x4,  0x22, 0x3,  0xf8, 0x1,  0xd0, 0x0,  0x0,
    0x0,  0x0,  0x0,  0xa9, 0xf,  0x83, 0xe,  0x5f, 0xd,  0x3b, 0xc,  0x19, 0xb,  0xf8, 0x9,  0xd8, 0x8,  0xb9, 0x7,  0x9b, 0x6,
    0x7e, 0x5,  0x63, 0x4,  0x48, 0x3,  0x2f, 0x2,  0x17, 0x1,  0x0,  0x0,  0x0,  0x0,  0xa6, 0xfa, 0xff, 0xff, 0x4,  0x0,  0x0,
    0x0,  0x78, 0x2,  0x0,  0x0,  0x0,  0x0,  0x9e, 0xa,  0x0,  0x0,  0x0,  0x0,  0xdc, 0x4,  0xbe, 0xe,  0x0,  0x0,  0x0,  0x0,
    0x4c, 0x8,  0x0,  0x0,  0x0,  0x0,  0x0,  0x0,  0x0,  0x0,  0x8b, 0x1,  0x7f, 0xa,  0x0,  0x0,  0x0,  0x0,  0x2e, 0x3,  0x9c,
    0xb,  0x0,  0x0,  0x0,  0x0,  0xcb, 0x3,  0xc0, 0xb,  0x0,  0x0,  0x0,  0x0,  0x7e, 0x3,  0x8,  0xb,  0x0,  0x0,  0x0,  0x0,
    0x60, 0x2,  0x88, 0x9,  0x0,  0x0,  0x0,  0x0,  0x84, 0x0,  0x56, 0x7,  0xfe, 0xd,  0x80, 0x4,  0xdd, 0xa,  0x0,  0x0,  0x0,
    0x0,  0x16, 0x1,  0x2e, 0x7,  0x24, 0xd,  0x0,  0x0,  0x0,  0x0,  0xfc, 0x2,  0xb5, 0x8,  0x52, 0xe,  0xd3, 0x3,  0x39, 0x9,
    0x86, 0xe,  0x0,  0x0,  0x0,  0x0,  0xba, 0x3,  0xd6, 0x8,  0xdc, 0xd,  0xcb, 0x2,  0xa4, 0x7,  0x69, 0xc,  0x0,  0x0,  0x0,
    0x0,  0x1a, 0x1,  0xb7, 0x5,  0x42, 0xa,  0xba, 0xe,  0x0,  0x0,  0x0,  0x0,  0x0,  0x0,  0x0,  0x0,  0x21, 0x3,  0x77, 0x7,
    0xbc, 0xb,  0xf1, 0xf,  0x0,  0x0,  0x0,  0x0,  0x0,  0x0,  0x0,  0x0,  0x16, 0x4,  0x2c, 0x8,  0x34, 0xc,  0x2d, 0x0,  0x18,
    0x4,  0xf6, 0x7,  0xc6, 0xb,  0x89, 0xf,  0x0,  0x0,  0x0,  0x0,  0x0,  0x0,  0x0,  0x0,  0x40, 0x3,  0xeb, 0x6,  0x8a, 0xa,
    0x1d, 0xe,  0x0,  0x0,  0x0,  0x0,  0x0,  0x0,  0x0,  0x0,  0xa5, 0x1,  0x22, 0x5,  0x94, 0x8,  0xfc, 0xb,  0x59, 0xf,  0x0,
    0x0,  0x0,  0x0,  0xac, 0x2,  0xf6, 0x5,  0x36, 0x9,  0x6c, 0xc,  0x9a, 0xf,  0x0,  0x0,  0x0,  0x0,  0x0,  0x0,  0x0,  0x0,
    0xbe, 0x2,  0xda, 0x5,  0xed, 0x8,  0xf8, 0xb,  0xfa, 0xe,  0x0,  0x0,  0x0,  0x0,  0xf5, 0x1,  0xe8, 0x4,  0xd3, 0x7,  0xb6,
    0xa,  0x92, 0xd,  0x0,  0x0,  0x0,  0x0,  0x0,  0x0,  0x0,  0x0,  0x67, 0x0,  0x34, 0x3,  0xfb, 0x5,  0xbb, 0x8,  0x74, 0xb,
    0x27, 0xe,  0x0,  0x0,  0x0,  0x0,  0xd3, 0x0,  0x78, 0x3,  0x18, 0x6,  0xb1, 0x8,  0x45, 0xb,  0xd2, 0xd,  0x0,  0x0,  0x0,
    0x0,  0x5a, 0x0,  0xdc, 0x2,  0x58, 0x5,  0xcf, 0x7,  0x41, 0xa,  0xad, 0xc,  0x14, 0xf,  0x76, 0x1,  0xd3, 0x3,  0x2b, 0x6,
    0x7e, 0x8,  0xcc, 0xa,  0x16, 0xd,  0x5a, 0xf,  0x0,  0x0,  0x0,  0x0,  0x9b, 0x1,  0xd6, 0x3,  0xe,  0x6,  0x41, 0x8,  0x6f,
    0xa,  0x9a, 0xc,  0xc0, 0xe,  0xe2, 0x0,  0x0,  0x3,  0x1a, 0x5,  0x30, 0x7,  0x43, 0x9,  0x51, 0xb,  0x5c, 0xd,  0x63, 0xf,
    0x66, 0x1,  0x66, 0x3,  0x62, 0x5,  0x5b, 0x7,  0x50, 0x9,  0x42, 0xb,  0x30, 0xd,  0x1b, 0xf,  0x3,  0x1,  0xe8, 0x2,  0xc9,
    0x4,  0xa8, 0x6,  0x83, 0x8,  0x5b, 0xa,  0x30, 0xc,  0x2,  0xe,  0xd1, 0xf,  0x0,  0x0,  0x0,  0x0,  0x0,  0x0,  0x0,  0x0,
    0x9d, 0x1,  0x67, 0x3,  0x2d, 0x5,  0xf1, 0x6,  0xb2, 0x8,  0x70, 0xa,  0x2b, 0xc,  0xe4, 0xd,  0x9a, 0xf,  0x0,  0x0,  0x0,
    0x0,  0x4e, 0x1,  0xff, 0x2,  0xad, 0x4,  0x59, 0x6,  0x2,  0x8,  0xa9, 0x9,  0x4e, 0xb,  0xf0, 0xc,  0x90, 0xe,  0x0,  0x0,
    0x0,  0x0,  0x0,  0x0,  0x0,  0x0,  0x2d, 0x0,  0xc8, 0x1,  0x61, 0x3,  0xf7, 0x4,  0x8c, 0x6,  0x1e, 0x8,  0xad, 0x9,  0x3b,
    0xb,  0xc7, 0xc,  0x50, 0xe,  0xd7, 0xf,  0x5c, 0x1,  0xe0, 0x2,  0x61, 0x4,  0xe0, 0x5,  0x5d, 0x7,  0xd8, 0x8,  0x51, 0xa,
    0xc8, 0xb,  0x3d, 0xd,  0xb1, 0xe,  0x0,  0x0,  0x0,  0x0,  0x22, 0x0,  0x92, 0x1,  0x0,  0x3,  0x6c, 0x4,  0xd6, 0x5,  0x3e,
    0x7,  0xa5, 0x8,  0xa,  0xa,  0x6d, 0xb,  0xcf, 0xc,  0x2e, 0xe,  0x8c, 0xf,  0xe9, 0x0,  0x43, 0x2,  0x9d, 0x3,  0xf4, 0x4,
    0x4a, 0x6,  0x9e, 0x7,  0xf1, 0x8,  0x42, 0xa,  0x92, 0xb,  0xe0, 0xc,  0x2c, 0xe,  0x77, 0xf,  0xc1, 0x0,  0x9,  0x2,  0x50,
    0x3,  0x95, 0x4,  0xd8, 0x5,  0x1b, 0x7,  0x5c, 0x8,  0x9b, 0x9,  0xd9, 0xa,  0x16, 0xc,  0x51, 0xd,  0x8b, 0xe,  0xc4, 0xf,
    0x0,  0x0,  0x0,  0x0,  0x0,  0x0,  0x0,  0x0,  0xfb, 0x0,  0x31, 0x2,  0x66, 0x3,  0x99, 0x4,  0xcb, 0x5,  0xfc, 0x6,  0x2c,
    0x8,  0x5a, 0x9,  0x87, 0xa,  0xb3, 0xb,  0xdd, 0xc,  0x7,  0xe,  0x2f, 0xf,  0x0,  0x0,  0x0,  0x0,  0x56, 0x0,  0x7c, 0x1,
    0xa0, 0x2,  0xc4, 0x3,  0xe6, 0x4,  0x7,  0x6,  0x27, 0x7,  0x46, 0x8,  0x64, 0x9,  0x81, 0xa,  0x9c, 0xb,  0xb7, 0xc,  0xd0,
    0xd,  0xe8, 0xe,  0x0,  0x10, 0x0,  0x0,  0x2a, 0xfd, 0xff, 0xff, 0x4,  0x0,  0x0,  0x0,  0x52, 0x0,  0x0,  0x0,  0x4,  0x0,
    0x6,  0x0,  0x8,  0x0,  0x8,  0x0,  0xa,  0x0,  0xc,  0x0,  0xe,  0x0,  0x10, 0x0,  0x12, 0x0,  0x16, 0x0,  0x18, 0x0,  0x1a,
    0x0,  0x1e, 0x0,  0x20, 0x0,  0x24, 0x0,  0x26, 0x0,  0x2a, 0x0,  0x2e, 0x0,  0x32, 0x0,  0x36, 0x0,  0x3a, 0x0,  0x40, 0x0,
    0x44, 0x0,  0x4a, 0x0,  0x4e, 0x0,  0x54, 0x0,  0x5a, 0x0,  0x62, 0x0,  0x68, 0x0,  0x70, 0x0,  0x78, 0x0,  0x80, 0x0,  0x88,
    0x0,  0x92, 0x0,  0x9a, 0x0,  0xa6, 0x0,  0xb0, 0x0,  0xbc, 0x0,  0xc8, 0x0,  0xd4, 0x0,  0xe2, 0x0,  0x0,  0x0,  0x8a, 0xfd,
    0xff, 0xff, 0x4,  0x0,  0x0,  0x0,  0x52, 0x0,  0x0,  0x0,  0x0,  0x0,  0x4,  0x0,  0x8,  0x0,  0xc,  0x0,  0x10, 0x0,  0x14,
    0x0,  0x18, 0x0,  0x1c, 0x0,  0x20, 0x0,  0x24, 0x0,  0x28, 0x0,  0x2c, 0x0,  0x30, 0x0,  0x34, 0x0,  0x38, 0x0,  0x3c, 0x0,
    0x44, 0x0,  0x4c, 0x0,  0x50, 0x0,  0x58, 0x0,  0x60, 0x0,  0x68, 0x0,  0x70, 0x0,  0x78, 0x0,  0x80, 0x0,  0x88, 0x0,  0x90,
    0x0,  0x98, 0x0,  0xa0, 0x0,  0xa8, 0x0,  0xb0, 0x0,  0xb8, 0x0,  0xc4, 0x0,  0xd0, 0x0,  0xdc, 0x0,  0xe8, 0x0,  0xf4, 0x0,
    0x0,  0x1,  0xc,  0x1,  0x1c, 0x1,  0x2c, 0x1,  0x0,  0x0,  0xea, 0xfd, 0xff, 0xff, 0x4,  0x0,  0x0,  0x0,  0x52, 0x0,  0x0,
    0x0,  0x4,  0x0,  0x4,  0x0,  0x4,  0x0,  0x4,  0x0,  0x4,  0x0,  0x4,  0x0,  0x4,  0x0,  0x4,  0x0,  0x4,  0x0,  0x4,  0x0,
    0x4,  0x0,  0x4,  0x0,  0x4,  0x0,  0x4,  0x0,  0x4,  0x0,  0x8,  0x0,  0x8,  0x0,  0x4,  0x0,  0x8,  0x0,  0x8,  0x0,  0x8,
    0x0,  0x8,  0x0,  0x8,  0x0,  0x8,  0x0,  0x8,  0x0,  0x8,  0x0,  0x8,  0x0,  0x8,  0x0,  0x8,  0x0,  0x8,  0x0,  0x8,  0x0,
    0xc,  0x0,  0xc,  0x0,  0xc,  0x0,  0xc,  0x0,  0xc,  0x0,  0xc,  0x0,  0xc,  0x0,  0x10, 0x0,  0x10, 0x0,  0x10, 0x0,  0x0,
    0x0,  0x4a, 0xfe, 0xff, 0xff, 0x4,  0x0,  0x0,  0x0,  0xfa, 0x0,  0x0,  0x0,  0x7c, 0x7f, 0x79, 0x7f, 0x76, 0x7f, 0xfa, 0xff,
    0x0,  0x0,  0x0,  0x0,  0x70, 0x7f, 0xf4, 0xff, 0x0,  0x0,  0x0,  0x0,  0x64, 0x7f, 0xe9, 0xff, 0xfe, 0xff, 0x0,  0x0,  0x4b,
    0x7f, 0xd0, 0xff, 0x0,  0x0,  0x0,  0x0,  0x1b, 0x7f, 0xa0, 0xff, 0x0,  0x0,  0x0,  0x0,  0xbb, 0x7e, 0x42, 0xff, 0x0,  0x0,
    0x0,  0x0,  0xfd, 0x7d, 0x86, 0xfe, 0x4,  0x0,  0x0,  0x0,  0x87, 0x7c, 0x1d, 0xfd, 0x12, 0x0,  0x0,  0x0,  0xb6, 0x79, 0x7f,
    0xfa, 0x3e, 0x0,  0x0,  0x0,  0x73, 0x74, 0xf9, 0xf5, 0xca, 0x0,  0x0,  0x0,  0x36, 0x6b, 0x33, 0xef, 0x32, 0x2,  0x0,  0x0,
    0x9b, 0x5c, 0x87, 0xe7, 0xce, 0x4,  0x0,  0x0,  0xf0, 0x48, 0xde, 0xe2, 0xa0, 0x7,  0x0,  0x0,  0x6e, 0x33, 0x8a, 0xe4, 0xa4,
    0x8,  0x0,  0x0,  0x9c, 0x20, 0x22, 0xeb, 0x4c, 0x7,  0x0,  0x0,  0xa,  0x13, 0x7d, 0xf2, 0x2,  0x5,  0x0,  0x0,  0x89, 0xa,
    0x17, 0xf8, 0x6,  0x3,  0x0,  0x0,  0xa6, 0x5,  0xa0, 0xfb, 0xb4, 0x1,  0x0,  0x0,  0xfa, 0x2,  0xac, 0xfd, 0xe8, 0x0,  0x0,
    0x0,  0x8e, 0x1,  0xc7, 0xfe, 0x7a, 0x0,  0x0,  0x0,  0xcf, 0x0,  0x5c, 0xff, 0x40, 0x0,  0x0,  0x0,  0x6b, 0x0,  0xab, 0xff,
    0x22, 0x0,  0x0,  0x0,  0x38, 0x0,  0xd3, 0xff, 0x12, 0x0,  0x0,  0x0,  0x1d, 0x0,  0xea, 0xff, 0x8,  0x0,  0x0,  0x0,  0xf,
    0x0,  0xf3, 0xff, 0x6,  0x0,  0x0,  0x0,  0x8,  0x0,  0xf8, 0xff, 0x4,  0x0,  0x0,  0x0,  0x4,  0x0,  0xfe, 0xff, 0x0,  0x0,
    0x0,  0x0,  0x2,  0x0,  0xfd, 0xff, 0x2,  0x0,  0x0,  0x0,  0x1,  0x0,  0x0,  0x0,  0x0,  0x0,  0x0,  0x0,  0x1,  0x0,  0xfd,
    0xff, 0x2,  0x0,  0x0,  0x0,  0x0,  0x0,  0x0,  0x0,  0x0,  0x0,  0x0,  0x0,  0x52, 0xff, 0xff, 0xff, 0x4,  0x0,  0x0,  0x0,
    0x4,  0x0,  0x0,  0x0,  0x5,  0x0,  0x0,  0x0,  0x62, 0xff, 0xff, 0xff, 0x4,  0x0,  0x0,  0x0,  0x4,  0x0,  0x0,  0x0,  0xf1,
    0x0,  0x0,  0x0,  0x72, 0xff, 0xff, 0xff, 0x4,  0x0,  0x0,  0x0,  0x4,  0x0,  0x0,  0x0,  0x1,  0x0,  0x0,  0x0,  0x82, 0xff,
    0xff, 0xff, 0x4,  0x0,  0x0,  0x0,  0x4,  0x0,  0x0,  0x0,  0x4d, 0x1,  0x0,  0x0,  0x92, 0xff, 0xff, 0xff, 0x4,  0x0,  0x0,
    0x0,  0x14, 0x0,  0x0,  0x0,  0x0,  0x0,  0x0,  0x0,  0x0,  0x0,  0x0,  0x0,  0x0,  0x0,  0x0,  0x0,  0x0,  0x0,  0x0,  0x0,
    0x0,  0x0,  0x0,  0x0,  0xb2, 0xff, 0xff, 0xff, 0x4,  0x0,  0x0,  0x0,  0x40, 0x0,  0x0,  0x0,  0x0,  0x0,  0x0,  0x0,  0x0,
    0x0,  0x0,  0x0,  0x0,  0x0,  0x0,  0x0,  0x0,  0x0,  0x0,  0x0,  0x0,  0x0,  0x0,  0x0,  0x0,  0x0,  0x0,  0x0,  0x0,  0x0,
    0x0,  0x0,  0x0,  0x0,  0x0,  0x0,  0x0,  0x0,  0x0,  0x0,  0x0,  0x0,  0x0,  0x0,  0x0,  0x0,  0x0,  0x0,  0x0,  0x0,  0x0,
    0x0,  0x0,  0x0,  0x0,  0x0,  0x0,  0x0,  0x0,  0x0,  0x0,  0x0,  0x0,  0x0,  0x0,  0x0,  0x0,  0x0,  0x0,  0x0,  0x6,  0x0,
    0x8,  0x0,  0x4,  0x0,  0x6,  0x0,  0x0,  0x0,  0x4,  0x0,  0x0,  0x0,  0xc0, 0x3,  0x0,  0x0,  0x0,  0x0,  0x0,  0x0,  0x1,
    0x0,  0x2,  0x0,  0x4,  0x0,  0x5,  0x0,  0x7,  0x0,  0xa,  0x0,  0xd,  0x0,  0x10, 0x0,  0x13, 0x0,  0x17, 0x0,  0x1b, 0x0,
    0x20, 0x0,  0x25, 0x0,  0x2a, 0x0,  0x30, 0x0,  0x35, 0x0,  0x3c, 0x0,  0x42, 0x0,  0x49, 0x0,  0x51, 0x0,  0x58, 0x0,  0x60,
    0x0,  0x68, 0x0,  0x71, 0x0,  0x7a, 0x0,  0x83, 0x0,  0x8d, 0x0,  0x97, 0x0,  0xa1, 0x0,  0xac, 0x0,  0xb7, 0x0,  0xc2, 0x0,
    0xcd, 0x0,  0xd9, 0x0,  0xe5, 0x0,  0xf2, 0x0,  0xff, 0x0,  0xc,  0x1,  0x19, 0x1,  0x27, 0x1,  0x35, 0x1,  0x43, 0x1,  0x52,
    0x1,  0x61, 0x1,  0x70, 0x1,  0x7f, 0x1,  0x8f, 0x1,  0x9f, 0x1,  0xaf, 0x1,  0xc0, 0x1,  0xd1, 0x1,  0xe2, 0x1,  0xf3, 0x1,
    0x5,  0x2,  0x17, 0x2,  0x29, 0x2,  0x3c, 0x2,  0x4e, 0x2,  0x61, 0x2,  0x75, 0x2,  0x88, 0x2,  0x9c, 0x2,  0xb0, 0x2,  0xc4,
    0x2,  0xd8, 0x2,  0xed, 0x2,  0x2,  0x3,  0x17, 0x3,  0x2c, 0x3,  0x41, 0x3,  0x57, 0x3,  0x6d, 0x3,  0x83, 0x3,  0x99, 0x3,
    0xb0, 0x3,  0xc7, 0x3,  0xdd, 0x3,  0xf4, 0x3,  0xc,  0x4,  0x23, 0x4,  0x3b, 0x4,  0x52, 0x4,  0x6a, 0x4,  0x82, 0x4,  0x9a,
    0x4,  0xb3, 0x4,  0xcb, 0x4,  0xe4, 0x4,  0xfd, 0x4,  0x16, 0x5,  0x2f, 0x5,  0x48, 0x5,  0x61, 0x5,  0x7a, 0x5,  0x94, 0x5,
    0xad, 0x5,  0xc7, 0x5,  0xe1, 0x5,  0xfb, 0x5,  0x15, 0x6,  0x2f, 0x6,  0x49, 0x6,  0x63, 0x6,  0x7e, 0x6,  0x98, 0x6,  0xb2,
    0x6,  0xcd, 0x6,  0xe7, 0x6,  0x2,  0x7,  0x1d, 0x7,  0x37, 0x7,  0x52, 0x7,  0x6d, 0x7,  0x87, 0x7,  0xa2, 0x7,  0xbd, 0x7,
    0xd8, 0x7,  0xf3, 0x7,  0xd,  0x8,  0x28, 0x8,  0x43, 0x8,  0x5e, 0x8,  0x79, 0x8,  0x93, 0x8,  0xae, 0x8,  0xc9, 0x8,  0xe3,
    0x8,  0xfe, 0x8,  0x19, 0x9,  0x33, 0x9,  0x4e, 0x9,  0x68, 0x9,  0x82, 0x9,  0x9d, 0x9,  0xb7, 0x9,  0xd1, 0x9,  0xeb, 0x9,
    0x5,  0xa,  0x1f, 0xa,  0x39, 0xa,  0x53, 0xa,  0x6c, 0xa,  0x86, 0xa,  0x9f, 0xa,  0xb8, 0xa,  0xd1, 0xa,  0xea, 0xa,  0x3,
    0xb,  0x1c, 0xb,  0x35, 0xb,  0x4d, 0xb,  0x66, 0xb,  0x7e, 0xb,  0x96, 0xb,  0xae, 0xb,  0xc5, 0xb,  0xdd, 0xb,  0xf4, 0xb,
    0xc,  0xc,  0x23, 0xc,  0x39, 0xc,  0x50, 0xc,  0x67, 0xc,  0x7d, 0xc,  0x93, 0xc,  0xa9, 0xc,  0xbf, 0xc,  0xd4, 0xc,  0xe9,
    0xc,  0xfe, 0xc,  0x13, 0xd,  0x28, 0xd,  0x3c, 0xd,  0x50, 0xd,  0x64, 0xd,  0x78, 0xd,  0x8b, 0xd,  0x9f, 0xd,  0xb2, 0xd,
    0xc4, 0xd,  0xd7, 0xd,  0xe9, 0xd,  0xfb, 0xd,  0xd,  0xe,  0x1e, 0xe,  0x2f, 0xe,  0x40, 0xe,  0x51, 0xe,  0x61, 0xe,  0x71,
    0xe,  0x81, 0xe,  0x90, 0xe,  0x9f, 0xe,  0xae, 0xe,  0xbd, 0xe,  0xcb, 0xe,  0xd9, 0xe,  0xe7, 0xe,  0xf4, 0xe,  0x1,  0xf,
    0xe,  0xf,  0x1b, 0xf,  0x27, 0xf,  0x33, 0xf,  0x3e, 0xf,  0x49, 0xf,  0x54, 0xf,  0x5f, 0xf,  0x69, 0xf,  0x73, 0xf,  0x7d,
    0xf,  0x86, 0xf,  0x8f, 0xf,  0x98, 0xf,  0xa0, 0xf,  0xa8, 0xf,  0xaf, 0xf,  0xb7, 0xf,  0xbe, 0xf,  0xc4, 0xf,  0xcb, 0xf,
    0xd0, 0xf,  0xd6, 0xf,  0xdb, 0xf,  0xe0, 0xf,  0xe5, 0xf,  0xe9, 0xf,  0xed, 0xf,  0xf0, 0xf,  0xf3, 0xf,  0xf6, 0xf,  0xf9,
    0xf,  0xfb, 0xf,  0xfc, 0xf,  0xfe, 0xf,  0xff, 0xf,  0x0,  0x10, 0x0,  0x10, 0x0,  0x10, 0x0,  0x10, 0xff, 0xf,  0xfe, 0xf,
    0xfc, 0xf,  0xfb, 0xf,  0xf9, 0xf,  0xf6, 0xf,  0xf3, 0xf,  0xf0, 0xf,  0xed, 0xf,  0xe9, 0xf,  0xe5, 0xf,  0xe0, 0xf,  0xdb,
    0xf,  0xd6, 0xf,  0xd0, 0xf,  0xcb, 0xf,  0xc4, 0xf,  0xbe, 0xf,  0xb7, 0xf,  0xaf, 0xf,  0xa8, 0xf,  0xa0, 0xf,  0x98, 0xf,
    0x8f, 0xf,  0x86, 0xf,  0x7d, 0xf,  0x73, 0xf,  0x69, 0xf,  0x5f, 0xf,  0x54, 0xf,  0x49, 0xf,  0x3e, 0xf,  0x33, 0xf,  0x27,
    0xf,  0x1b, 0xf,  0xe,  0xf,  0x1,  0xf,  0xf4, 0xe,  0xe7, 0xe,  0xd9, 0xe,  0xcb, 0xe,  0xbd, 0xe,  0xae, 0xe,  0x9f, 0xe,
    0x90, 0xe,  0x81, 0xe,  0x71, 0xe,  0x61, 0xe,  0x51, 0xe,  0x40, 0xe,  0x2f, 0xe,  0x1e, 0xe,  0xd,  0xe,  0xfb, 0xd,  0xe9,
    0xd,  0xd7, 0xd,  0xc4, 0xd,  0xb2, 0xd,  0x9f, 0xd,  0x8b, 0xd,  0x78, 0xd,  0x64, 0xd,  0x50, 0xd,  0x3c, 0xd,  0x28, 0xd,
    0x13, 0xd,  0xfe, 0xc,  0xe9, 0xc,  0xd4, 0xc,  0xbf, 0xc,  0xa9, 0xc,  0x93, 0xc,  0x7d, 0xc,  0x67, 0xc,  0x50, 0xc,  0x39,
    0xc,  0x23, 0xc,  0xc,  0xc,  0xf4, 0xb,  0xdd, 0xb,  0xc5, 0xb,  0xae, 0xb,  0x96, 0xb,  0x7e, 0xb,  0x66, 0xb,  0x4d, 0xb,
    0x35, 0xb,  0x1c, 0xb,  0x3,  0xb,  0xea, 0xa,  0xd1, 0xa,  0xb8, 0xa,  0x9f, 0xa,  0x86, 0xa,  0x6c, 0xa,  0x53, 0xa,  0x39,
    0xa,  0x1f, 0xa,  0x5,  0xa,  0xeb, 0x9,  0xd1, 0x9,  0xb7, 0x9,  0x9d, 0x9,  0x82, 0x9,  0x68, 0x9,  0x4e, 0x9,  0x33, 0x9,
    0x19, 0x9,  0xfe, 0x8,  0xe3, 0x8,  0xc9, 0x8,  0xae, 0x8,  0x93, 0x8,  0x79, 0x8,  0x5e, 0x8,  0x43, 0x8,  0x28, 0x8,  0xd,
    0x8,  0xf3, 0x7,  0xd8, 0x7,  0xbd, 0x7,  0xa2, 0x7,  0x87, 0x7,  0x6d, 0x7,  0x52, 0x7,  0x37, 0x7,  0x1d, 0x7,  0x2,  0x7,
    0xe7, 0x6,  0xcd, 0x6,  0xb2, 0x6,  0x98, 0x6,  0x7e, 0x6,  0x63, 0x6,  0x49, 0x6,  0x2f, 0x6,  0x15, 0x6,  0xfb, 0x5,  0xe1,
    0x5,  0xc7, 0x5,  0xad, 0x5,  0x94, 0x5,  0x7a, 0x5,  0x61, 0x5,  0x48, 0x5,  0x2f, 0x5,  0x16, 0x5,  0xfd, 0x4,  0xe4, 0x4,
    0xcb, 0x4,  0xb3, 0x4,  0x9a, 0x4,  0x82, 0x4,  0x6a, 0x4,  0x52, 0x4,  0x3b, 0x4,  0x23, 0x4,  0xc,  0x4,  0xf4, 0x3,  0xdd,
    0x3,  0xc7, 0x3,  0xb0, 0x3,  0x99, 0x3,  0x83, 0x3,  0x6d, 0x3,  0x57, 0x3,  0x41, 0x3,  0x2c, 0x3,  0x17, 0x3,  0x2,  0x3,
    0xed, 0x2,  0xd8, 0x2,  0xc4, 0x2,  0xb0, 0x2,  0x9c, 0x2,  0x88, 0x2,  0x75, 0x2,  0x61, 0x2,  0x4e, 0x2,  0x3c, 0x2,  0x29,
    0x2,  0x17, 0x2,  0x5,  0x2,  0xf3, 0x1,  0xe2, 0x1,  0xd1, 0x1,  0xc0, 0x1,  0xaf, 0x1,  0x9f, 0x1,  0x8f, 0x1,  0x7f, 0x1,
    0x70, 0x1,  0x61, 0x1,  0x52, 0x1,  0x43, 0x1,  0x35, 0x1,  0x27, 0x1,  0x19, 0x1,  0xc,  0x1,  0xff, 0x0,  0xf2, 0x0,  0xe5,
    0x0,  0xd9, 0x0,  0xcd, 0x0,  0xc2, 0x0,  0xb7, 0x0,  0xac, 0x0,  0xa1, 0x0,  0x97, 0x0,  0x8d, 0x0,  0x83, 0x0,  0x7a, 0x0,
    0x71, 0x0,  0x68, 0x0,  0x60, 0x0,  0x58, 0x0,  0x51, 0x0,  0x49, 0x0,  0x42, 0x0,  0x3c, 0x0,  0x35, 0x0,  0x30, 0x0,  0x2a,
    0x0,  0x25, 0x0,  0x20, 0x0,  0x1b, 0x0,  0x17, 0x0,  0x13, 0x0,  0x10, 0x0,  0xd,  0x0,  0xa,  0x0,  0x7,  0x0,  0x5,  0x0,
    0x4,  0x0,  0x2,  0x0,  0x1,  0x0,  0x0,  0x0,  0x0,  0x0,  0x34, 0xee, 0xff, 0xff, 0x38, 0xee, 0xff, 0xff, 0xf,  0x0,  0x0,
    0x0,  0x4d, 0x4c, 0x49, 0x52, 0x20, 0x43, 0x6f, 0x6e, 0x76, 0x65, 0x72, 0x74, 0x65, 0x64, 0x2e, 0x0,  0x1,  0x0,  0x0,  0x0,
    0x14, 0x0,  0x0,  0x0,  0x0,  0x0,  0xe,  0x0,  0x18, 0x0,  0x14, 0x0,  0x10, 0x0,  0xc,  0x0,  0x8,  0x0,  0x4,  0x0,  0xe,
    0x0,  0x0,  0x0,  0x14, 0x0,  0x0,  0x0,  0x1c, 0x0,  0x0,  0x0,  0xf4, 0x5,  0x0,  0x0,  0xf8, 0x5,  0x0,  0x0,  0xfc, 0x5,
    0x0,  0x0,  0x4,  0x0,  0x0,  0x0,  0x6d, 0x61, 0x69, 0x6e, 0x0,  0x0,  0x0,  0x0,  0x16, 0x0,  0x0,  0x0,  0xa0, 0x5,  0x0,
    0x0,  0x68, 0x5,  0x0,  0x0,  0x24, 0x5,  0x0,  0x0,  0xc8, 0x4,  0x0,  0x0,  0x70, 0x4,  0x0,  0x0,  0x4c, 0x4,  0x0,  0x0,
    0x10, 0x4,  0x0,  0x0,  0xc8, 0x3,  0x0,  0x0,  0xa4, 0x3,  0x0,  0x0,  0x4c, 0x3,  0x0,  0x0,  0x14, 0x3,  0x0,  0x0,  0x10,
    0x2,  0x0,  0x0,  0xc8, 0x1,  0x0,  0x0,  0x6c, 0x1,  0x0,  0x0,  0x48, 0x1,  0x0,  0x0,  0x14, 0x1,  0x0,  0x0,  0xe0, 0x0,
    0x0,  0x0,  0xac, 0x0,  0x0,  0x0,  0x78, 0x0,  0x0,  0x0,  0x50, 0x0,  0x0,  0x0,  0x28, 0x0,  0x0,  0x0,  0x4,  0x0,  0x0,
    0x0,  0xf6, 0xfa, 0xff, 0xff, 0xc,  0x0,  0x0,  0x0,  0x10, 0x0,  0x0,  0x0,  0x5,  0x0,  0x0,  0x0,  0x1,  0x0,  0x0,  0x0,
    0x2a, 0x0,  0x0,  0x0,  0x1,  0x0,  0x0,  0x0,  0x29, 0x0,  0x0,  0x0,  0x16, 0xfb, 0xff, 0xff, 0xc,  0x0,  0x0,  0x0,  0x10,
    0x0,  0x0,  0x0,  0x11, 0x0,  0x0,  0x0,  0x1,  0x0,  0x0,  0x0,  0x29, 0x0,  0x0,  0x0,  0x2,  0x0,  0x0,  0x0,  0x28, 0x0,
    0x0,  0x0,  0x10, 0x0,  0x0,  0x0,  0x3a, 0xfb, 0xff, 0xff, 0xc,  0x0,  0x0,  0x0,  0x10, 0x0,  0x0,  0x0,  0x10, 0x0,  0x0,
    0x0,  0x1,  0x0,  0x0,  0x0,  0x28, 0x0,  0x0,  0x0,  0x2,  0x0,  0x0,  0x0,  0x27, 0x0,  0x0,  0x0,  0xe,  0x0,  0x0,  0x0,
    0xa6, 0xfc, 0xff, 0xff, 0x14, 0x0,  0x0,  0x0,  0x0,  0x0,  0x0,  0xb,  0x10, 0x0,  0x0,  0x0,  0x14, 0x0,  0x0,  0x0,  0xe,
    0x0,  0x0,  0x0,  0x68, 0xef, 0xff, 0xff, 0x1,  0x0,  0x0,  0x0,  0x27, 0x0,  0x0,  0x0,  0x2,  0x0,  0x0,  0x0,  0x26, 0x0,
    0x0,  0x0,  0x10, 0x0,  0x0,  0x0,  0xd6, 0xfc, 0xff, 0xff, 0x14, 0x0,  0x0,  0x0,  0x0,  0x0,  0x0,  0x1d, 0x10, 0x0,  0x0,
    0x0,  0x14, 0x0,  0x0,  0x0,  0xf,  0x0,  0x0,  0x0,  0x98, 0xef, 0xff, 0xff, 0x1,  0x0,  0x0,  0x0,  0x26, 0x0,  0x0,  0x0,
    0x2,  0x0,  0x0,  0x0,  0x25, 0x0,  0x0,  0x0,  0x12, 0x0,  0x0,  0x0,  0x6,  0xfd, 0xff, 0xff, 0x14, 0x0,  0x0,  0x0,  0x0,
    0x0,  0x0,  0xb,  0x10, 0x0,  0x0,  0x0,  0x14, 0x0,  0x0,  0x0,  0xe,  0x0,  0x0,  0x0,  0xc8, 0xef, 0xff, 0xff, 0x1,  0x0,
    0x0,  0x0,  0x25, 0x0,  0x0,  0x0,  0x2,  0x0,  0x0,  0x0,  0x24, 0x0,  0x0,  0x0,  0x4,  0x0,  0x0,  0x0,  0x36, 0xfd, 0xff,
    0xff, 0x14, 0x0,  0x0,  0x0,  0x0,  0x0,  0x0,  0x15, 0x10, 0x0,  0x0,  0x0,  0x14, 0x0,  0x0,  0x0,  0xd,  0x0,  0x0,  0x0,
    0xf8, 0xef, 0xff, 0xff, 0x1,  0x0,  0x0,  0x0,  0x24, 0x0,  0x0,  0x0,  0x2,  0x0,  0x0,  0x0,  0x23, 0x0,  0x0,  0x0,  0x11,
    0x0,  0x0,  0x0,  0x1e, 0xfc, 0xff, 0xff, 0xc,  0x0,  0x0,  0x0,  0x10, 0x0,  0x0,  0x0,  0x5,  0x0,  0x0,  0x0,  0x1,  0x0,
    0x0,  0x0,  0x23, 0x0,  0x0,  0x0,  0x1,  0x0,  0x0,  0x0,  0x22, 0x0,  0x0,  0x0,  0x84, 0xfc, 0xff, 0xff, 0x10, 0x0,  0x0,
    0x0,  0x40, 0x0,  0x0,  0x0,  0x44, 0x0,  0x0,  0x0,  0xc,  0x0,  0x0,  0x0,  0x30, 0x0,  0x0,  0x0,  0x69, 0x6e, 0x70, 0x75,
    0x74, 0x5f, 0x63, 0x6f, 0x72, 0x72, 0x65, 0x63, 0x74, 0x69, 0x6f, 0x6e, 0x5f, 0x62, 0x69, 0x74, 0x73, 0x0,  0x6f, 0x75, 0x74,
    0x70, 0x75, 0x74, 0x5f, 0x73, 0x63, 0x61, 0x6c, 0x65, 0x0,  0x2,  0x24, 0xf,  0x2,  0x1,  0x2,  0x3,  0x40, 0x4,  0x4,  0x4,
    0x24, 0x1,  0x1,  0x0,  0x0,  0x0,  0x22, 0x0,  0x0,  0x0,  0x1,  0x0,  0x0,  0x0,  0x21, 0x0,  0x0,  0x0,  0xdc, 0xfc, 0xff,
    0xff, 0x10, 0x0,  0x0,  0x0,  0x24, 0x0,  0x0,  0x0,  0x28, 0x0,  0x0,  0x0,  0xb,  0x0,  0x0,  0x0,  0x14, 0x0,  0x0,  0x0,
    0x73, 0x6e, 0x72, 0x5f, 0x73, 0x68, 0x69, 0x66, 0x74, 0x0,  0x1,  0xb,  0x1,  0x1,  0x1,  0x6,  0x4,  0x2,  0x24, 0x1,  0x1,
    0x0,  0x0,  0x0,  0x21, 0x0,  0x0,  0x0,  0x3,  0x0,  0x0,  0x0,  0x1f, 0x0,  0x0,  0x0,  0x20, 0x0,  0x0,  0x0,  0x8,  0x0,
    0x0,  0x0,  0x20, 0xfd, 0xff, 0xff, 0x10, 0x0,  0x0,  0x0,  0xe4, 0x0,  0x0,  0x0,  0xec, 0x0,  0x0,  0x0,  0xa,  0x0,  0x0,
    0x0,  0xd2, 0x0,  0x0,  0x0,  0x61, 0x6c, 0x74, 0x65, 0x72, 0x6e, 0x61, 0x74, 0x65, 0x5f, 0x6f, 0x6e, 0x65, 0x5f, 0x6d, 0x69,
    0x6e, 0x75, 0x73, 0x5f, 0x73, 0x6d, 0x6f, 0x6f, 0x74, 0x68, 0x69, 0x6e, 0x67, 0x0,  0x61, 0x6c, 0x74, 0x65, 0x72, 0x6e, 0x61,
    0x74, 0x65, 0x5f, 0x73, 0x6d, 0x6f, 0x6f, 0x74, 0x68, 0x69, 0x6e, 0x67, 0x0,  0x63, 0x6c, 0x61, 0x6d, 0x70, 0x69, 0x6e, 0x67,
    0x0,  0x6d, 0x69, 0x6e, 0x5f, 0x73, 0x69, 0x67, 0x6e, 0x61, 0x6c, 0x5f, 0x72, 0x65, 0x6d, 0x61, 0x69, 0x6e, 0x69, 0x6e, 0x67,
    0x0,  0x6e, 0x75, 0x6d, 0x5f, 0x63, 0x68, 0x61, 0x6e, 0x6e, 0x65, 0x6c, 0x73, 0x0,  0x6f, 0x6e, 0x65, 0x5f, 0x6d, 0x69, 0x6e,
    0x75, 0x73, 0x5f, 0x73, 0x6d, 0x6f, 0x6f, 0x74, 0x68, 0x69, 0x6e, 0x67, 0x0,  0x73, 0x6d, 0x6f, 0x6f, 0x74, 0x68, 0x69, 0x6e,
    0x67, 0x0,  0x73, 0x6d, 0x6f, 0x6f, 0x74, 0x68, 0x69, 0x6e, 0x67, 0x5f, 0x62, 0x69, 0x74, 0x73, 0x0,  0x73, 0x70, 0x65, 0x63,
    0x74, 0x72, 0x61, 0x6c, 0x5f, 0x73, 0x75, 0x62, 0x74, 0x72, 0x61, 0x63, 0x74, 0x69, 0x6f, 0x6e, 0x5f, 0x62, 0x69, 0x74, 0x73,
    0x0,  0x9,  0xa5, 0x88, 0x75, 0x6d, 0x59, 0x4d, 0x3a, 0x31, 0x23, 0x9,  0x0,  0x1,  0x0,  0x9,  0x0,  0x29, 0x3c, 0xd7, 0x3,
    0x0,  0x0,  0x33, 0x3,  0x28, 0x0,  0x67, 0x3e, 0x99, 0x1,  0xa,  0x0,  0xe,  0x0,  0x5,  0x5,  0x69, 0x5,  0x5,  0x5,  0x5,
    0x5,  0x5,  0x1b, 0x25, 0x1,  0x0,  0x0,  0x2,  0x0,  0x0,  0x0,  0x1f, 0x0,  0x0,  0x0,  0x20, 0x0,  0x0,  0x0,  0x1,  0x0,
    0x0,  0x0,  0x1e, 0x0,  0x0,  0x0,  0x20, 0xfe, 0xff, 0xff, 0x10, 0x0,  0x0,  0x0,  0x18, 0x0,  0x0,  0x0,  0x1c, 0x0,  0x0,
    0x0,  0x9,  0x0,  0x0,  0x0,  0x7,  0x0,  0x0,  0x0,  0x0,  0x0,  0x1,  0x0,  0x0,  0x24, 0x1,  0x0,  0x1,  0x0,  0x0,  0x0,
    0x1e, 0x0,  0x0,  0x0,  0x2,  0x0,  0x0,  0x0,  0x1d, 0x0,  0x0,  0x0,  0x16, 0x0,  0x0,  0x0,  0x54, 0xfe, 0xff, 0xff, 0x10,
    0x0,  0x0,  0x0,  0x28, 0x0,  0x0,  0x0,  0x2c, 0x0,  0x0,  0x0,  0x8,  0x0,  0x0,  0x0,  0x17, 0x0,  0x0,  0x0,  0x6e, 0x75,
    0x6d, 0x5f, 0x63, 0x68, 0x61, 0x6e, 0x6e, 0x65, 0x6c, 0x73, 0x0,  0x1,  0xe,  0x1,  0x1,  0x1,  0x28, 0x4,  0x2,  0x24, 0x1,
    0x0,  0x1,  0x0,  0x0,  0x0,  0x1d, 0x0,  0x0,  0x0,  0x6,  0x0,  0x0,  0x0,  0x1c, 0x0,  0x0,  0x0,  0xd,  0x0,  0x0,  0x0,
    0xc,  0x0,  0x0,  0x0,  0xb,  0x0,  0x0,  0x0,  0xa,  0x0,  0x0,  0x0,  0x9,  0x0,  0x0,  0x0,  0x62, 0xfe, 0xff, 0xff, 0xc,
    0x0,  0x0,  0x0,  0x10, 0x0,  0x0,  0x0,  0x5,  0x0,  0x0,  0x0,  0x1,  0x0,  0x0,  0x0,  0x1c, 0x0,  0x0,  0x0,  0x1,  0x0,
    0x0,  0x0,  0x1b, 0x0,  0x0,  0x0,  0xca, 0xff, 0xff, 0xff, 0x14, 0x0,  0x0,  0x0,  0x0,  0x0,  0x0,  0xa,  0x10, 0x0,  0x0,
    0x0,  0x14, 0x0,  0x0,  0x0,  0x7,  0x0,  0x0,  0x0,  0x8c, 0xf2, 0xff, 0xff, 0x1,  0x0,  0x0,  0x0,  0x1b, 0x0,  0x0,  0x0,
    0x3,  0x0,  0x0,  0x0,  0x3,  0x0,  0x0,  0x0,  0x1a, 0x0,  0x0,  0x0,  0x2,  0x0,  0x0,  0x0,  0x0,  0x0,  0xe,  0x0,  0x18,
    0x0,  0x14, 0x0,  0x10, 0x0,  0xc,  0x0,  0xb,  0x0,  0x4,  0x0,  0xe,  0x0,  0x0,  0x0,  0x14, 0x0,  0x0,  0x0,  0x0,  0x0,
    0x0,  0x20, 0x10, 0x0,  0x0,  0x0,  0x14, 0x0,  0x0,  0x0,  0x6,  0x0,  0x0,  0x0,  0xd0, 0xf2, 0xff, 0xff, 0x1,  0x0,  0x0,
    0x0,  0x1a, 0x0,  0x0,  0x0,  0x4,  0x0,  0x0,  0x0,  0x19, 0x0,  0x0,  0x0,  0x7,  0x0,  0x0,  0x0,  0x6,  0x0,  0x0,  0x0,
    0x5,  0x0,  0x0,  0x0,  0xfe, 0xfe, 0xff, 0xff, 0xc,  0x0,  0x0,  0x0,  0x10, 0x0,  0x0,  0x0,  0x5,  0x0,  0x0,  0x0,  0x1,
    0x0,  0x0,  0x0,  0x19, 0x0,  0x0,  0x0,  0x1,  0x0,  0x0,  0x0,  0x18, 0x0,  0x0,  0x0,  0x64, 0xff, 0xff, 0xff, 0x10, 0x0,
    0x0,  0x0,  0x3c, 0x0,  0x0,  0x0,  0x40, 0x0,  0x0,  0x0,  0x4,  0x0,  0x0,  0x0,  0x29, 0x0,  0x0,  0x0,  0x65, 0x6e, 0x64,
    0x5f, 0x69, 0x6e, 0x64, 0x65, 0x78, 0x0,  0x73, 0x74, 0x61, 0x72, 0x74, 0x5f, 0x69, 0x6e, 0x64, 0x65, 0x78, 0x0,  0x2,  0x17,
    0xe,  0x0,  0x3,  0x0,  0x1,  0x0,  0x2,  0x0,  0xf1, 0x0,  0x5,  0x0,  0x5,  0x5,  0x6,  0x25, 0x1,  0x0,  0x0,  0x0,  0x1,
    0x0,  0x0,  0x0,  0x18, 0x0,  0x0,  0x0,  0x1,  0x0,  0x0,  0x0,  0x17, 0x0,  0x0,  0x0,  0xb8, 0xff, 0xff, 0xff, 0x10, 0x0,
    0x0,  0x0,  0x30, 0x0,  0x0,  0x0,  0x34, 0x0,  0x0,  0x0,  0x3,  0x0,  0x0,  0x0,  0x1f, 0x0,  0x0,  0x0,  0x54, 0x0,  0x66,
    0x66, 0x74, 0x5f, 0x6c, 0x65, 0x6e, 0x67, 0x74, 0x68, 0x0,  0x2,  0xe,  0xd,  0x2,  0x0,  0x1,  0x0,  0x2,  0x0,  0x7,  0x0,
    0x0,  0x2,  0x5,  0x5,  0x6,  0x25, 0x1,  0x0,  0x1,  0x0,  0x0,  0x0,  0x17, 0x0,  0x0,  0x0,  0x1,  0x0,  0x0,  0x0,  0x15,
    0x0,  0x0,  0x0,  0x10, 0x0,  0x14, 0x0,  0x10, 0x0,  0xc,  0x0,  0x8,  0x0,  0x0,  0x0,  0x0,  0x0,  0x4,  0x0,  0x10, 0x0,
    0x0,  0x0,  0x10, 0x0,  0x0,  0x0,  0x18, 0x0,  0x0,  0x0,  0x20, 0x0,  0x0,  0x0,  0x2,  0x0,  0x0,  0x0,  0x7,  0x0,  0x0,
    0x0,  0x0,  0x0,  0x1,  0x0,  0x0,  0x24, 0x1,  0x0,  0x2,  0x0,  0x0,  0x0,  0x15, 0x0,  0x0,  0x0,  0x16, 0x0,  0x0,  0x0,
    0x1,  0x0,  0x0,  0x0,  0x14, 0x0,  0x0,  0x0,  0x0,  0x0,  0xa,  0x0,  0x10, 0x0,  0xc,  0x0,  0x8,  0x0,  0x4,  0x0,  0xa,
    0x0,  0x0,  0x0,  0xc,  0x0,  0x0,  0x0,  0x10, 0x0,  0x0,  0x0,  0x1,  0x0,  0x0,  0x0,  0x1,  0x0,  0x0,  0x0,  0x14, 0x0,
    0x0,  0x0,  0x2,  0x0,  0x0,  0x0,  0x13, 0x0,  0x0,  0x0,  0xf,  0x0,  0x0,  0x0,  0x10, 0x0,  0x10, 0x0,  0x0,  0x0,  0xc,
    0x0,  0x8,  0x0,  0x0,  0x0,  0x0,  0x0,  0x4,  0x0,  0x10, 0x0,  0x0,  0x0,  0xc,  0x0,  0x0,  0x0,  0x1c, 0x0,  0x0,  0x0,
    0x20, 0x0,  0x0,  0x0,  0x10, 0x0,  0x0,  0x0,  0x73, 0x68, 0x69, 0x66, 0x74, 0x0,  0x1,  0x7,  0x1,  0x1,  0x1,  0xc,  0x4,
    0x2,  0x24, 0x1,  0x1,  0x0,  0x0,  0x0,  0x13, 0x0,  0x0,  0x0,  0x2,  0x0,  0x0,  0x0,  0x0,  0x0,  0x0,  0x0,  0x1,  0x0,
    0x0,  0x0,  0x1,  0x0,  0x0,  0x0,  0x2a, 0x0,  0x0,  0x0,  0x1,  0x0,  0x0,  0x0,  0x0,  0x0,  0x0,  0x0,  0x2b, 0x0,  0x0,
    0x0,  0xc4, 0xa,  0x0,  0x0,  0x74, 0xa,  0x0,  0x0,  0x3c, 0xa,  0x0,  0x0,  0x4,  0xa,  0x0,  0x0,  0xd0, 0x9,  0x0,  0x0,
    0x88, 0x9,  0x0,  0x0,  0x40, 0x9,  0x0,  0x0,  0xfc, 0x8,  0x0,  0x0,  0xb8, 0x8,  0x0,  0x0,  0x6c, 0x8,  0x0,  0x0,  0x20,
    0x8,  0x0,  0x0,  0xd4, 0x7,  0x0,  0x0,  0x88, 0x7,  0x0,  0x0,  0x3c, 0x7,  0x0,  0x0,  0xf8, 0x6,  0x0,  0x0,  0xb8, 0x6,
    0x0,  0x0,  0x84, 0x6,  0x0,  0x0,  0x50, 0x6,  0x0,  0x0,  0x1c, 0x6,  0x0,  0x0,  0xd8, 0x5,  0x0,  0x0,  0xa0, 0x5,  0x0,
    0x0,  0x58, 0x5,  0x0,  0x0,  0x14, 0x5,  0x0,  0x0,  0xd8, 0x4,  0x0,  0x0,  0x98, 0x4,  0x0,  0x0,  0x60, 0x4,  0x0,  0x0,
    0x20, 0x4,  0x0,  0x0,  0xe8, 0x3,  0x0,  0x0,  0xb0, 0x3,  0x0,  0x0,  0x6c, 0x3,  0x0,  0x0,  0x1c, 0x3,  0x0,  0x0,  0xc4,
    0x2,  0x0,  0x0,  0x68, 0x2,  0x0,  0x0,  0x2c, 0x2,  0x0,  0x0,  0xe4, 0x1,  0x0,  0x0,  0xac, 0x1,  0x0,  0x0,  0x78, 0x1,
    0x0,  0x0,  0x44, 0x1,  0x0,  0x0,  0x8,  0x1,  0x0,  0x0,  0xd0, 0x0,  0x0,  0x0,  0x88, 0x0,  0x0,  0x0,  0x48, 0x0,  0x0,
    0x0,  0x4,  0x0,  0x0,  0x0,  0xfe, 0xf5, 0xff, 0xff, 0x0,  0x0,  0x0,  0x1,  0x14, 0x0,  0x0,  0x0,  0x14, 0x0,  0x0,  0x0,
    0x2b, 0x0,  0x0,  0x0,  0x0,  0x0,  0x0,  0x9,  0x20, 0x0,  0x0,  0x0,  0x44, 0xf5, 0xff, 0xff, 0x11, 0x0,  0x0,  0x0,  0x50,
    0x61, 0x72, 0x74, 0x69, 0x74, 0x69, 0x6f, 0x6e, 0x65, 0x64, 0x43, 0x61, 0x6c, 0x6c, 0x3a, 0x30, 0x0,  0x0,  0x0,  0x1,  0x0,
    0x0,  0x0,  0x28, 0x0,  0x0,  0x0,  0x3e, 0xf6, 0xff, 0xff, 0x0,  0x0,  0x0,  0x1,  0x14, 0x0,  0x0,  0x0,  0x14, 0x0,  0x0,
    0x0,  0x2a, 0x0,  0x0,  0x0,  0x0,  0x0,  0x0,  0x2,  0x1c, 0x0,  0x0,  0x0,  0x84, 0xf5, 0xff, 0xff, 0xd,  0x0,  0x0,  0x0,
    0x63, 0x6c, 0x69, 0x70, 0x5f, 0x62, 0x79, 0x5f, 0x76, 0x61, 0x6c, 0x75, 0x65, 0x0,  0x0,  0x0,  0x1,  0x0,  0x0,  0x0,  0x28,
    0x0,  0x0,  0x0,  0x7a, 0xf6, 0xff, 0xff, 0x0,  0x0,  0x0,  0x1,  0x14, 0x0,  0x0,  0x0,  0x14, 0x0,  0x0,  0x0,  0x29, 0x0,
    0x0,  0x0,  0x0,  0x0,  0x0,  0x2,  0x24, 0x0,  0x0,  0x0,  0xc0, 0xf5, 0xff, 0xff, 0x15, 0x0,  0x0,  0x0,  0x63, 0x6c, 0x69,
    0x70, 0x5f, 0x62, 0x79, 0x5f, 0x76, 0x61, 0x6c, 0x75, 0x65, 0x2f, 0x4d, 0x69, 0x6e, 0x69, 0x6d, 0x75, 0x6d, 0x0,  0x0,  0x0,
    0x1,  0x0,  0x0,  0x0,  0x28, 0x0,  0x0,  0x0,  0xbe, 0xf6, 0xff, 0xff, 0x0,  0x0,  0x0,  0x1,  0x14, 0x0,  0x0,  0x0,  0x14,
    0x0,  0x0,  0x0,  0x28, 0x0,  0x0,  0x0,  0x0,  0x0,  0x0,  0x2,  0x14, 0x0,  0x0,  0x0,  0x4,  0xf6, 0xff, 0xff, 0x5,  0x0,
    0x0,  0x0,  0x61, 0x64, 0x64, 0x5f, 0x31, 0x0,  0x0,  0x0,  0x1,  0x0,  0x0,  0x0,  0x28, 0x0,  0x0,  0x0,  0xf2, 0xf6, 0xff,
    0xff, 0x0,  0x0,  0x0,  0x1,  0x14, 0x0,  0x0,  0x0,  0x14, 0x0,  0x0,  0x0,  0x27, 0x0,  0x0,  0x0,  0x0,  0x0,  0x0,  0x2,
    0x18, 0x0,  0x0,  0x0,  0x38, 0xf6, 0xff, 0xff, 0xb,  0x0,  0x0,  0x0,  0x54, 0x72, 0x75, 0x6e, 0x63, 0x61, 0x74, 0x65, 0x44,
    0x69, 0x76, 0x0,  0x1,  0x0,  0x0,  0x0,  0x28, 0x0,  0x0,  0x0,  0x2a, 0xf7, 0xff, 0xff, 0x0,  0x0,  0x0,  0x1,  0x14, 0x0,
    0x0,  0x0,  0x14, 0x0,  0x0,  0x0,  0x26, 0x0,  0x0,  0x0,  0x0,  0x0,  0x0,  0x2,  0x10, 0x0,  0x0,  0x0,  0x70, 0xf6, 0xff,
    0xff, 0x3,  0x0,  0x0,  0x0,  0x61, 0x64, 0x64, 0x0,  0x1,  0x0,  0x0,  0x0,  0x28, 0x0,  0x0,  0x0,  0x5a, 0xf7, 0xff, 0xff,
    0x0,  0x0,  0x0,  0x1,  0x14, 0x0,  0x0,  0x0,  0x14, 0x0,  0x0,  0x0,  0x25, 0x0,  0x0,  0x0,  0x0,  0x0,  0x0,  0x2,  0x10,
    0x0,  0x0,  0x0,  0xa0, 0xf6, 0xff, 0xff, 0x3,  0x0,  0x0,  0x0,  0x6d, 0x75, 0x6c, 0x0,  0x1,  0x0,  0x0,  0x0,  0x28, 0x0,
    0x0,  0x0,  0x8a, 0xf7, 0xff, 0xff, 0x0,  0x0,  0x0,  0x1,  0x14, 0x0,  0x0,  0x0,  0x14, 0x0,  0x0,  0x0,  0x24, 0x0,  0x0,
    0x0,  0x0,  0x0,  0x0,  0x2,  0x14, 0x0,  0x0,  0x0,  0xd0, 0xf6, 0xff, 0xff, 0x6,  0x0,  0x0,  0x0,  0x43, 0x61, 0x73, 0x74,
    0x5f, 0x32, 0x0,  0x0,  0x1,  0x0,  0x0,  0x0,  0x28, 0x0,  0x0,  0x0,  0xbe, 0xf7, 0xff, 0xff, 0x0,  0x0,  0x0,  0x1,  0x14,
    0x0,  0x0,  0x0,  0x14, 0x0,  0x0,  0x0,  0x23, 0x0,  0x0,  0x0,  0x0,  0x0,  0x0,  0x7,  0x24, 0x0,  0x0,  0x0,  0x4,  0xf7,
    0xff, 0xff, 0x16, 0x0,  0x0,  0x0,  0x73, 0x69, 0x67, 0x6e, 0x61, 0x6c, 0x5f, 0x66, 0x69, 0x6c, 0x74, 0x65, 0x72, 0x5f, 0x62,
    0x61, 0x6e, 0x6b, 0x5f, 0x6c, 0x6f, 0x67, 0x0,  0x0,  0x1,  0x0,  0x0,  0x0,  0x28, 0x0,  0x0,  0x0,  0x2,  0xf8, 0xff, 0xff,
    0x0,  0x0,  0x0,  0x1,  0x14, 0x0,  0x0,  0x0,  0x14, 0x0,  0x0,  0x0,  0x22, 0x0,  0x0,  0x0,  0x0,  0x0,  0x0,  0xf,  0x18,
    0x0,  0x0,  0x0,  0x48, 0xf7, 0xff, 0xff, 0xb,  0x0,  0x0,  0x0,  0x73, 0x69, 0x67, 0x6e, 0x61, 0x6c, 0x5f, 0x70, 0x63, 0x61,
    0x6e, 0x0,  0x1,  0x0,  0x0,  0x0,  0x28, 0x0,  0x0,  0x0,  0x3a, 0xf8, 0xff, 0xff, 0x0,  0x0,  0x0,  0x1,  0x14, 0x0,  0x0,
    0x0,  0x14, 0x0,  0x0,  0x0,  0x21, 0x0,  0x0,  0x0,  0x0,  0x0,  0x0,  0xf,  0x38, 0x0,  0x0,  0x0,  0x80, 0xf7, 0xff, 0xff,
    0x28, 0x0,  0x0,  0x0,  0x73, 0x69, 0x67, 0x6e, 0x61, 0x6c, 0x5f, 0x66, 0x69, 0x6c, 0x74, 0x65, 0x72, 0x5f, 0x62, 0x61, 0x6e,
    0x6b, 0x5f, 0x73, 0x70, 0x65, 0x63, 0x74, 0x72, 0x61, 0x6c, 0x5f, 0x73, 0x75, 0x62, 0x74, 0x72, 0x61, 0x63, 0x74, 0x69, 0x6f,
    0x6e, 0x31, 0x0,  0x0,  0x0,  0x0,  0x1,  0x0,  0x0,  0x0,  0x28, 0x0,  0x0,  0x0,  0x92, 0xf8, 0xff, 0xff, 0x0,  0x0,  0x0,
    0x1,  0x14, 0x0,  0x0,  0x0,  0x14, 0x0,  0x0,  0x0,  0x20, 0x0,  0x0,  0x0,  0x0,  0x0,  0x0,  0xf,  0x34, 0x0,  0x0,  0x0,
    0xd8, 0xf7, 0xff, 0xff, 0x27, 0x0,  0x0,  0x0,  0x73, 0x69, 0x67, 0x6e, 0x61, 0x6c, 0x5f, 0x66, 0x69, 0x6c, 0x74, 0x65, 0x72,
    0x5f, 0x62, 0x61, 0x6e, 0x6b, 0x5f, 0x73, 0x70, 0x65, 0x63, 0x74, 0x72, 0x61, 0x6c, 0x5f, 0x73, 0x75, 0x62, 0x74, 0x72, 0x61,
    0x63, 0x74, 0x69, 0x6f, 0x6e, 0x0,  0x1,  0x0,  0x0,  0x0,  0x28, 0x0,  0x0,  0x0,  0xe6, 0xf8, 0xff, 0xff, 0x0,  0x0,  0x0,
    0x1,  0x14, 0x0,  0x0,  0x0,  0x14, 0x0,  0x0,  0x0,  0x1f, 0x0,  0x0,  0x0,  0x0,  0x0,  0x0,  0xf,  0x2c, 0x0,  0x0,  0x0,
    0x2c, 0xf8, 0xff, 0xff, 0x1e, 0x0,  0x0,  0x0,  0x73, 0x69, 0x67, 0x6e, 0x61, 0x6c, 0x5f, 0x66, 0x69, 0x6c, 0x74, 0x65, 0x72,
    0x5f, 0x62, 0x61, 0x6e, 0x6b, 0x5f, 0x73, 0x71, 0x75, 0x61, 0x72, 0x65, 0x5f, 0x72, 0x6f, 0x6f, 0x74, 0x0,  0x0,  0x1,  0x0,
    0x0,  0x0,  0x28, 0x0,  0x0,  0x0,  0x32, 0xf9, 0xff, 0xff, 0x0,  0x0,  0x0,  0x1,  0x14, 0x0,  0x0,  0x0,  0x14, 0x0,  0x0,
    0x0,  0x1e, 0x0,  0x0,  0x0,  0x0,  0x0,  0x0,  0xc,  0x20, 0x0,  0x0,  0x0,  0x78, 0xf8, 0xff, 0xff, 0x12, 0x0,  0x0,  0x0,
    0x73, 0x69, 0x67, 0x6e, 0x61, 0x6c, 0x5f, 0x66, 0x69, 0x6c, 0x74, 0x65, 0x72, 0x5f, 0x62, 0x61, 0x6e, 0x6b, 0x0,  0x0,  0x1,
    0x0,  0x0,  0x0,  0x28, 0x0,  0x0,  0x0,  0x72, 0xf9, 0xff, 0xff, 0x0,  0x0,  0x0,  0x1,  0x14, 0x0,  0x0,  0x0,  0x14, 0x0,
    0x0,  0x0,  0x1d, 0x0,  0x0,  0x0,  0x0,  0x0,  0x0,  0xf,  0x14, 0x0,  0x0,  0x0,  0xb8, 0xf8, 0xff, 0xff, 0x6,  0x0,  0x0,
    0x0,  0x43, 0x61, 0x73, 0x74, 0x5f, 0x31, 0x0,  0x0,  0x1,  0x0,  0x0,  0x0,  0x1,  0x1,  0x0,  0x0,  0xa6, 0xf9, 0xff, 0xff,
    0x0,  0x0,  0x0,  0x1,  0x14, 0x0,  0x0,  0x0,  0x14, 0x0,  0x0,  0x0,  0x1c, 0x0,  0x0,  0x0,  0x0,  0x0,  0x0,  0x2,  0x14,
    0x0,  0x0,  0x0,  0xec, 0xf8, 0xff, 0xff, 0x6,  0x0,  0x0,  0x0,  0x63, 0x6f, 0x6e, 0x63, 0x61, 0x74, 0x0,  0x0,  0x1,  0x0,
    0x0,  0x0,  0x1,  0x1,  0x0,  0x0,  0xda, 0xf9, 0xff, 0xff, 0x0,  0x0,  0x0,  0x1,  0x14, 0x0,  0x0,  0x0,  0x14, 0x0,  0x0,
    0x0,  0x1b, 0x0,  0x0,  0x0,  0x0,  0x0,  0x0,  0x2,  0x1c, 0x0,  0x0,  0x0,  0x20, 0xf9, 0xff, 0xff, 0xd,  0x0,  0x0,  0x0,
    0x73, 0x74, 0x72, 0x69, 0x64, 0x65, 0x64, 0x5f, 0x73, 0x6c, 0x69, 0x63, 0x65, 0x0,  0x0,  0x0,  0x1,  0x0,  0x0,  0x0,  0xec,
    0x0,  0x0,  0x0,  0x16, 0xfa, 0xff, 0xff, 0x0,  0x0,  0x0,  0x1,  0x14, 0x0,  0x0,  0x0,  0x14, 0x0,  0x0,  0x0,  0x1a, 0x0,
    0x0,  0x0,  0x0,  0x0,  0x0,  0x2,  0x14, 0x0,  0x0,  0x0,  0x5c, 0xf9, 0xff, 0xff, 0x4,  0x0,  0x0,  0x0,  0x43, 0x61, 0x73,
    0x74, 0x0,  0x0,  0x0,  0x0,  0x1,  0x0,  0x0,  0x0,  0x1,  0x1,  0x0,  0x0,  0x4a, 0xfa, 0xff, 0xff, 0x0,  0x0,  0x0,  0x1,
    0x14, 0x0,  0x0,  0x0,  0x14, 0x0,  0x0,  0x0,  0x19, 0x0,  0x0,  0x0,  0x0,  0x0,  0x0,  0xf,  0x1c, 0x0,  0x0,  0x0,  0x90,
    0xf9, 0xff, 0xff, 0xd,  0x0,  0x0,  0x0,  0x73, 0x69, 0x67, 0x6e, 0x61, 0x6c, 0x5f, 0x65, 0x6e, 0x65, 0x72, 0x67, 0x79, 0x0,
    0x0,  0x0,  0x1,  0x0,  0x0,  0x0,  0x1,  0x1,  0x0,  0x0,  0x86, 0xfa, 0xff, 0xff, 0x0,  0x0,  0x0,  0x1,  0x14, 0x0,  0x0,
    0x0,  0x14, 0x0,  0x0,  0x0,  0x18, 0x0,  0x0,  0x0,  0x0,  0x0,  0x0,  0x7,  0x18, 0x0,  0x0,  0x0,  0xcc, 0xf9, 0xff, 0xff,
    0xb,  0x0,  0x0,  0x0,  0x73, 0x69, 0x67, 0x6e, 0x61, 0x6c, 0x5f, 0x72, 0x66, 0x66, 0x74, 0x0,  0x1,  0x0,  0x0,  0x0,  0x2,
    0x2,  0x0,  0x0,  0xbe, 0xfa, 0xff, 0xff, 0x0,  0x0,  0x0,  0x1,  0x14, 0x0,  0x0,  0x0,  0x14, 0x0,  0x0,  0x0,  0x17, 0x0,
    0x0,  0x0,  0x0,  0x0,  0x0,  0x2,  0x24, 0x0,  0x0,  0x0,  0x4,  0xfa, 0xff, 0xff, 0x16, 0x0,  0x0,  0x0,  0x73, 0x69, 0x67,
    0x6e, 0x61, 0x6c, 0x5f, 0x66, 0x66, 0x74, 0x5f, 0x61, 0x75, 0x74, 0x6f, 0x5f, 0x73, 0x63, 0x61, 0x6c, 0x65, 0x31, 0x0,  0x0,
    0x0,  0x0,  0x0,  0x0,  0xfe, 0xfa, 0xff, 0xff, 0x0,  0x0,  0x0,  0x1,  0x14, 0x0,  0x0,  0x0,  0x14, 0x0,  0x0,  0x0,  0x16,
    0x0,  0x0,  0x0,  0x0,  0x0,  0x0,  0x7,  0x24, 0x0,  0x0,  0x0,  0x44, 0xfa, 0xff, 0xff, 0x15, 0x0,  0x0,  0x0,  0x73, 0x69,
    0x67, 0x6e, 0x61, 0x6c, 0x5f, 0x66, 0x66, 0x74, 0x5f, 0x61, 0x75, 0x74, 0x6f, 0x5f, 0x73, 0x63, 0x61, 0x6c, 0x65, 0x0,  0x0,
    0x0,  0x1,  0x0,  0x0,  0x0,  0xe0, 0x1,  0x0,  0x0,  0x42, 0xfb, 0xff, 0xff, 0x0,  0x0,  0x0,  0x1,  0x14, 0x0,  0x0,  0x0,
    0x14, 0x0,  0x0,  0x0,  0x15, 0x0,  0x0,  0x0,  0x0,  0x0,  0x0,  0x7,  0x14, 0x0,  0x0,  0x0,  0x88, 0xfa, 0xff, 0xff, 0x7,
    0x0,  0x0,  0x0,  0x52, 0x65, 0x73, 0x68, 0x61, 0x70, 0x65, 0x0,  0x1,  0x0,  0x0,  0x0,  0xe0, 0x1,  0x0,  0x0,  0x76, 0xfb,
    0xff, 0xff, 0x0,  0x0,  0x0,  0x1,  0x14, 0x0,  0x0,  0x0,  0x14, 0x0,  0x0,  0x0,  0x14, 0x0,  0x0,  0x0,  0x0,  0x0,  0x0,
    0x7,  0x1c, 0x0,  0x0,  0x0,  0xbc, 0xfa, 0xff, 0xff, 0xd,  0x0,  0x0,  0x0,  0x73, 0x69, 0x67, 0x6e, 0x61, 0x6c, 0x5f, 0x77,
    0x69, 0x6e, 0x64, 0x6f, 0x77, 0x0,  0x0,  0x0,  0x2,  0x0,  0x0,  0x0,  0x1,  0x0,  0x0,  0x0,  0xe0, 0x1,  0x0,  0x0,  0xb6,
    0xfb, 0xff, 0xff, 0x0,  0x0,  0x0,  0x1,  0x14, 0x0,  0x0,  0x0,  0x14, 0x0,  0x0,  0x0,  0x13, 0x0,  0x0,  0x0,  0x0,  0x0,
    0x0,  0x2,  0x14, 0x0,  0x0,  0x0,  0xfc, 0xfa, 0xff, 0xff, 0x7,  0x0,  0x0,  0x0,  0x43, 0x6f, 0x6e, 0x73, 0x74, 0x5f, 0x31,
    0x0,  0x0,  0x0,  0x0,  0x0,  0xe6, 0xfb, 0xff, 0xff, 0x0,  0x0,  0x0,  0x1,  0x14, 0x0,  0x0,  0x0,  0x14, 0x0,  0x0,  0x0,
    0x12, 0x0,  0x0,  0x0,  0x0,  0x0,  0x0,  0x2,  0x14, 0x0,  0x0,  0x0,  0x2c, 0xfb, 0xff, 0xff, 0x6,  0x0,  0x0,  0x0,  0x43,
    0x6f, 0x6e, 0x73, 0x74, 0x31, 0x0,  0x0,  0x0,  0x0,  0x0,  0x0,  0x16, 0xfc, 0xff, 0xff, 0x0,  0x0,  0x0,  0x1,  0x14, 0x0,
    0x0,  0x0,  0x14, 0x0,  0x0,  0x0,  0x11, 0x0,  0x0,  0x0,  0x0,  0x0,  0x0,  0x2,  0x14, 0x0,  0x0,  0x0,  0x5c, 0xfb, 0xff,
    0xff, 0x7,  0x0,  0x0,  0x0,  0x43, 0x6f, 0x6e, 0x73, 0x74, 0x5f, 0x32, 0x0,  0x0,  0x0,  0x0,  0x0,  0x46, 0xfc, 0xff, 0xff,
    0x0,  0x0,  0x0,  0x1,  0x14, 0x0,  0x0,  0x0,  0x14, 0x0,  0x0,  0x0,  0x10, 0x0,  0x0,  0x0,  0x0,  0x0,  0x0,  0x2,  0x1c,
    0x0,  0x0,  0x0,  0x8c, 0xfb, 0xff, 0xff, 0xd,  0x0,  0x0,  0x0,  0x52, 0x65, 0x73, 0x68, 0x61, 0x70, 0x65, 0x2f, 0x73, 0x68,
    0x61, 0x70, 0x65, 0x0,  0x0,  0x0,  0x1,  0x0,  0x0,  0x0,  0x1,  0x0,  0x0,  0x0,  0x82, 0xfc, 0xff, 0xff, 0x0,  0x0,  0x0,
    0x1,  0x14, 0x0,  0x0,  0x0,  0x14, 0x0,  0x0,  0x0,  0xf,  0x0,  0x0,  0x0,  0x0,  0x0,  0x0,  0x2,  0x24, 0x0,  0x0,  0x0,
    0xc8, 0xfb, 0xff, 0xff, 0x17, 0x0,  0x0,  0x0,  0x63, 0x6c, 0x69, 0x70, 0x5f, 0x62, 0x79, 0x5f, 0x76, 0x61, 0x6c, 0x75, 0x65,
    0x2f, 0x4d, 0x69, 0x6e, 0x69, 0x6d, 0x75, 0x6d, 0x2f, 0x79, 0x0,  0x0,  0x0,  0x0,  0x0,  0xc2, 0xfc, 0xff, 0xff, 0x0,  0x0,
    0x0,  0x1,  0x14, 0x0,  0x0,  0x0,  0x14, 0x0,  0x0,  0x0,  0xe,  0x0,  0x0,  0x0,  0x0,  0x0,  0x0,  0x7,  0x28, 0x0,  0x0,
    0x0,  0x8,  0xfc, 0xff, 0xff, 0x18, 0x0,  0x0,  0x0,  0x73, 0x69, 0x67, 0x6e, 0x61, 0x6c, 0x5f, 0x66, 0x69, 0x6c, 0x74, 0x65,
    0x72, 0x5f, 0x62, 0x61, 0x6e, 0x6b, 0x2f, 0x43, 0x6f, 0x6e, 0x73, 0x74, 0x0,  0x0,  0x0,  0x0,  0x1,  0x0,  0x0,  0x0,  0x3c,
    0x1,  0x0,  0x0,  0xa,  0xfd, 0xff, 0xff, 0x0,  0x0,  0x0,  0x1,  0x14, 0x0,  0x0,  0x0,  0x14, 0x0,  0x0,  0x0,  0xd,  0x0,
    0x0,  0x0,  0x0,  0x0,  0x0,  0x7,  0x28, 0x0,  0x0,  0x0,  0x50, 0xfc, 0xff, 0xff, 0x1a, 0x0,  0x0,  0x0,  0x73, 0x69, 0x67,
    0x6e, 0x61, 0x6c, 0x5f, 0x66, 0x69, 0x6c, 0x74, 0x65, 0x72, 0x5f, 0x62, 0x61, 0x6e, 0x6b, 0x2f, 0x43, 0x6f, 0x6e, 0x73, 0x74,
    0x5f, 0x31, 0x0,  0x0,  0x1,  0x0,  0x0,  0x0,  0x3c, 0x1,  0x0,  0x0,  0x52, 0xfd, 0xff, 0xff, 0x0,  0x0,  0x0,  0x1,  0x14,
    0x0,  0x0,  0x0,  0x14, 0x0,  0x0,  0x0,  0xc,  0x0,  0x0,  0x0,  0x0,  0x0,  0x0,  0x7,  0x28, 0x0,  0x0,  0x0,  0x98, 0xfc,
    0xff, 0xff, 0x1a, 0x0,  0x0,  0x0,  0x73, 0x69, 0x67, 0x6e, 0x61, 0x6c, 0x5f, 0x66, 0x69, 0x6c, 0x74, 0x65, 0x72, 0x5f, 0x62,
    0x61, 0x6e, 0x6b, 0x2f, 0x43, 0x6f, 0x6e, 0x73, 0x74, 0x5f, 0x32, 0x0,  0x0,  0x1,  0x0,  0x0,  0x0,  0x29, 0x0,  0x0,  0x0,
    0x9a, 0xfd, 0xff, 0xff, 0x0,  0x0,  0x0,  0x1,  0x14, 0x0,  0x0,  0x0,  0x14, 0x0,  0x0,  0x0,  0xb,  0x0,  0x0,  0x0,  0x0,
    0x0,  0x0,  0x7,  0x28, 0x0,  0x0,  0x0,  0xe0, 0xfc, 0xff, 0xff, 0x1a, 0x0,  0x0,  0x0,  0x73, 0x69, 0x67, 0x6e, 0x61, 0x6c,
    0x5f, 0x66, 0x69, 0x6c, 0x74, 0x65, 0x72, 0x5f, 0x62, 0x61, 0x6e, 0x6b, 0x2f, 0x43, 0x6f, 0x6e, 0x73, 0x74, 0x5f, 0x33, 0x0,
    0x0,  0x1,  0x0,  0x0,  0x0,  0x29, 0x0,  0x0,  0x0,  0xe2, 0xfd, 0xff, 0xff, 0x0,  0x0,  0x0,  0x1,  0x14, 0x0,  0x0,  0x0,
    0x14, 0x0,  0x0,  0x0,  0xa,  0x0,  0x0,  0x0,  0x0,  0x0,  0x0,  0x7,  0x28, 0x0,  0x0,  0x0,  0x28, 0xfd, 0xff, 0xff, 0x1a,
    0x0,  0x0,  0x0,  0x73, 0x69, 0x67, 0x6e, 0x61, 0x6c, 0x5f, 0x66, 0x69, 0x6c, 0x74, 0x65, 0x72, 0x5f, 0x62, 0x61, 0x6e, 0x6b,
    0x2f, 0x43, 0x6f, 0x6e, 0x73, 0x74, 0x5f, 0x34, 0x0,  0x0,  0x1,  0x0,  0x0,  0x0,  0x29, 0x0,  0x0,  0x0,  0x2a, 0xfe, 0xff,
    0xff, 0x0,  0x0,  0x0,  0x1,  0x14, 0x0,  0x0,  0x0,  0x14, 0x0,  0x0,  0x0,  0x9,  0x0,  0x0,  0x0,  0x0,  0x0,  0x0,  0x7,
    0x20, 0x0,  0x0,  0x0,  0x70, 0xfd, 0xff, 0xff, 0x11, 0x0,  0x0,  0x0,  0x73, 0x69, 0x67, 0x6e, 0x61, 0x6c, 0x5f, 0x70, 0x63,
    0x61, 0x6e, 0x2f, 0x43, 0x6f, 0x6e, 0x73, 0x74, 0x0,  0x0,  0x0,  0x1,  0x0,  0x0,  0x0,  0x7d, 0x0,  0x0,  0x0,  0x6a, 0xfe,
    0xff, 0xff, 0x0,  0x0,  0x0,  0x1,  0x14, 0x0,  0x0,  0x0,  0x14, 0x0,  0x0,  0x0,  0x8,  0x0,  0x0,  0x0,  0x0,  0x0,  0x0,
    0x2,  0x20, 0x0,  0x0,  0x0,  0xb0, 0xfd, 0xff, 0xff, 0x13, 0x0,  0x0,  0x0,  0x73, 0x74, 0x72, 0x69, 0x64, 0x65, 0x64, 0x5f,
    0x73, 0x6c, 0x69, 0x63, 0x65, 0x2f, 0x73, 0x74, 0x61, 0x63, 0x6b, 0x0,  0x1,  0x0,  0x0,  0x0,  0x1,  0x0,  0x0,  0x0,  0xaa,
    0xfe, 0xff, 0xff, 0x0,  0x0,  0x0,  0x1,  0x14, 0x0,  0x0,  0x0,  0x14, 0x0,  0x0,  0x0,  0x7,  0x0,  0x0,  0x0,  0x0,  0x0,
    0x0,  0x2,  0x24, 0x0,  0x0,  0x0,  0xf0, 0xfd, 0xff, 0xff, 0x15, 0x0,  0x0,  0x0,  0x73, 0x74, 0x72, 0x69, 0x64, 0x65, 0x64,
    0x5f, 0x73, 0x6c, 0x69, 0x63, 0x65, 0x2f, 0x73, 0x74, 0x61, 0x63, 0x6b, 0x5f, 0x31, 0x0,  0x0,  0x0,  0x1,  0x0,  0x0,  0x0,
    0x1,  0x0,  0x0,  0x0,  0xee, 0xfe, 0xff, 0xff, 0x0,  0x0,  0x0,  0x1,  0x14, 0x0,  0x0,  0x0,  0x14, 0x0,  0x0,  0x0,  0x6,
    0x0,  0x0,  0x0,  0x0,  0x0,  0x0,  0x2,  0x24, 0x0,  0x0,  0x0,  0x34, 0xfe, 0xff, 0xff, 0x15, 0x0,  0x0,  0x0,  0x73, 0x74,
    0x72, 0x69, 0x64, 0x65, 0x64, 0x5f, 0x73, 0x6c, 0x69, 0x63, 0x65, 0x2f, 0x73, 0x74, 0x61, 0x63, 0x6b, 0x5f, 0x32, 0x0,  0x0,
    0x0,  0x1,  0x0,  0x0,  0x0,  0x1,  0x0,  0x0,  0x0,  0x32, 0xff, 0xff, 0xff, 0x0,  0x0,  0x0,  0x1,  0x14, 0x0,  0x0,  0x0,
    0x14, 0x0,  0x0,  0x0,  0x5,  0x0,  0x0,  0x0,  0x0,  0x0,  0x0,  0x2,  0x14, 0x0,  0x0,  0x0,  0x78, 0xfe, 0xff, 0xff, 0x6,
    0x0,  0x0,  0x0,  0x43, 0x61, 0x73, 0x74, 0x5f, 0x33, 0x0,  0x0,  0x0,  0x0,  0x0,  0x0,  0x62, 0xff, 0xff, 0xff, 0x0,  0x0,
    0x0,  0x1,  0x14, 0x0,  0x0,  0x0,  0x14, 0x0,  0x0,  0x0,  0x4,  0x0,  0x0,  0x0,  0x0,  0x0,  0x0,  0x2,  0x14, 0x0,  0x0,
    0x0,  0xa8, 0xfe, 0xff, 0xff, 0x5,  0x0,  0x0,  0x0,  0x7a, 0x65, 0x72, 0x6f, 0x73, 0x0,  0x0,  0x0,  0x1,  0x0,  0x0,  0x0,
    0x5,  0x0,  0x0,  0x0,  0x96, 0xff, 0xff, 0xff, 0x0,  0x0,  0x0,  0x1,  0x14, 0x0,  0x0,  0x0,  0x14, 0x0,  0x0,  0x0,  0x3,
    0x0,  0x0,  0x0,  0x0,  0x0,  0x0,  0x2,  0x14, 0x0,  0x0,  0x0,  0xdc, 0xfe, 0xff, 0xff, 0x7,  0x0,  0x0,  0x0,  0x7a, 0x65,
    0x72, 0x6f, 0x73, 0x5f, 0x31, 0x0,  0x1,  0x0,  0x0,  0x0,  0x10, 0x0,  0x0,  0x0,  0xca, 0xff, 0xff, 0xff, 0x0,  0x0,  0x0,
    0x1,  0x14, 0x0,  0x0,  0x0,  0x14, 0x0,  0x0,  0x0,  0x2,  0x0,  0x0,  0x0,  0x0,  0x0,  0x0,  0x7,  0x14, 0x0,  0x0,  0x0,
    0x10, 0xff, 0xff, 0xff, 0x5,  0x0,  0x0,  0x0,  0x43, 0x6f, 0x6e, 0x73, 0x74, 0x0,  0x0,  0x0,  0x1,  0x0,  0x0,  0x0,  0xe0,
    0x1,  0x0,  0x0,  0x0,  0x0,  0x16, 0x0,  0x1c, 0x0,  0x18, 0x0,  0x17, 0x0,  0x10, 0x0,  0xc,  0x0,  0x8,  0x0,  0x0,  0x0,
    0x0,  0x0,  0x0,  0x0,  0x7,  0x0,  0x16, 0x0,  0x0,  0x0,  0x0,  0x0,  0x0,  0x1,  0x14, 0x0,  0x0,  0x0,  0x14, 0x0,  0x0,
    0x0,  0x1,  0x0,  0x0,  0x0,  0x0,  0x0,  0x0,  0x7,  0x2c, 0x0,  0x0,  0x0,  0x5c, 0xff, 0xff, 0xff, 0x1d, 0x0,  0x0,  0x0,
    0x73, 0x65, 0x72, 0x76, 0x69, 0x6e, 0x67, 0x5f, 0x64, 0x65, 0x66, 0x61, 0x75, 0x6c, 0x74, 0x5f, 0x61, 0x75, 0x64, 0x69, 0x6f,
    0x5f, 0x66, 0x72, 0x61, 0x6d, 0x65, 0x3a, 0x30, 0x0,  0x0,  0x0,  0x2,  0x0,  0x0,  0x0,  0x1,  0x0,  0x0,  0x0,  0xe0, 0x1,
    0x0,  0x0,  0x12, 0x0,  0x0,  0x0,  0x1c, 0x2,  0x0,  0x0,  0x0,  0x2,  0x0,  0x0,  0xc8, 0x1,  0x0,  0x0,  0xa4, 0x1,  0x0,
    0x0,  0x7c, 0x1,  0x0,  0x0,  0x68, 0x1,  0x0,  0x0,  0x4c, 0x1,  0x0,  0x0,  0x3c, 0x1,  0x0,  0x0,  0x10, 0x1,  0x0,  0x0,
    0xdc, 0x0,  0x0,  0x0,  0xa0, 0x0,  0x0,  0x0,  0x7c, 0x0,  0x0,  0x0,  0x50, 0x0,  0x0,  0x0,  0x40, 0x0,  0x0,  0x0,  0x38,
    0x0,  0x0,  0x0,  0x24, 0x0,  0x0,  0x0,  0x14, 0x0,  0x0,  0x0,  0x4,  0x0,  0x0,  0x0,  0x50, 0xfe, 0xff, 0xff, 0x37, 0x0,
    0x0,  0x0,  0x0,  0x0,  0x0,  0x37, 0x5c, 0xfe, 0xff, 0xff, 0x39, 0x0,  0x0,  0x0,  0x0,  0x0,  0x0,  0x39, 0x68, 0xfe, 0xff,
    0xff, 0x2a, 0x0,  0x0,  0x0,  0x0,  0x0,  0x0,  0x2a, 0x4,  0x0,  0x4,  0x0,  0x4,  0x0,  0x0,  0x0,  0x7c, 0xfe, 0xff, 0xff,
    0x12, 0x0,  0x0,  0x0,  0x0,  0x0,  0x0,  0x12, 0x70, 0xfe, 0xff, 0xff, 0x20, 0x0,  0x0,  0x0,  0x8,  0x0,  0x0,  0x0,  0x0,
    0x0,  0x0,  0x20, 0x13, 0x0,  0x0,  0x0,  0x53, 0x69, 0x67, 0x6e, 0x61, 0x6c, 0x46, 0x69, 0x6c, 0x74, 0x65, 0x72, 0x42, 0x61,
    0x6e, 0x6b, 0x4c, 0x6f, 0x67, 0x0,  0x98, 0xfe, 0xff, 0xff, 0x20, 0x0,  0x0,  0x0,  0x8,  0x0,  0x0,  0x0,  0x0,  0x0,  0x0,
    0x20, 0xa,  0x0,  0x0,  0x0,  0x53, 0x69, 0x67, 0x6e, 0x61, 0x6c, 0x50, 0x43, 0x41, 0x4e, 0x0,  0x0,  0xb8, 0xfe, 0xff, 0xff,
    0x20, 0x0,  0x0,  0x0,  0x8,  0x0,  0x0,  0x0,  0x0,  0x0,  0x0,  0x20, 0x23, 0x0,  0x0,  0x0,  0x53, 0x69, 0x67, 0x6e, 0x61,
    0x6c, 0x46, 0x69, 0x6c, 0x74, 0x65, 0x72, 0x42, 0x61, 0x6e, 0x6b, 0x53, 0x70, 0x65, 0x63, 0x74, 0x72, 0x61, 0x6c, 0x53, 0x75,
    0x62, 0x74, 0x72, 0x61, 0x63, 0x74, 0x69, 0x6f, 0x6e, 0x0,  0xf0, 0xfe, 0xff, 0xff, 0x20, 0x0,  0x0,  0x0,  0x8,  0x0,  0x0,
    0x0,  0x0,  0x0,  0x0,  0x20, 0x1a, 0x0,  0x0,  0x0,  0x53, 0x69, 0x67, 0x6e, 0x61, 0x6c, 0x46, 0x69, 0x6c, 0x74, 0x65, 0x72,
    0x42, 0x61, 0x6e, 0x6b, 0x53, 0x71, 0x75, 0x61, 0x72, 0x65, 0x52, 0x6f, 0x6f, 0x74, 0x0,  0x0,  0x20, 0xff, 0xff, 0xff, 0x20,
    0x0,  0x0,  0x0,  0x8,  0x0,  0x0,  0x0,  0x0,  0x0,  0x0,  0x20, 0x10, 0x0,  0x0,  0x0,  0x53, 0x69, 0x67, 0x6e, 0x61, 0x6c,
    0x46, 0x69, 0x6c, 0x74, 0x65, 0x72, 0x42, 0x61, 0x6e, 0x6b, 0x0,  0x0,  0x0,  0x0,  0x60, 0xff, 0xff, 0xff, 0x2,  0x0,  0x0,
    0x0,  0x0,  0x0,  0x0,  0x2,  0x6c, 0xff, 0xff, 0xff, 0x2d, 0x0,  0x0,  0x0,  0x0,  0x0,  0x0,  0x2d, 0xc,  0x0,  0x10, 0x0,
    0xf,  0x0,  0x0,  0x0,  0x8,  0x0,  0x4,  0x0,  0xc,  0x0,  0x0,  0x0,  0x35, 0x0,  0x0,  0x0,  0x3,  0x0,  0x0,  0x0,  0x0,
    0x0,  0x0,  0x35, 0x7c, 0xff, 0xff, 0xff, 0x20, 0x0,  0x0,  0x0,  0x8,  0x0,  0x0,  0x0,  0x0,  0x0,  0x0,  0x20, 0xc,  0x0,
    0x0,  0x0,  0x53, 0x69, 0x67, 0x6e, 0x61, 0x6c, 0x45, 0x6e, 0x65, 0x72, 0x67, 0x79, 0x0,  0x0,  0x0,  0x0,  0xa0, 0xff, 0xff,
    0xff, 0x20, 0x0,  0x0,  0x0,  0x8,  0x0,  0x0,  0x0,  0x0,  0x0,  0x0,  0x20, 0xa,  0x0,  0x0,  0x0,  0x53, 0x69, 0x67, 0x6e,
    0x61, 0x6c, 0x52, 0x66, 0x66, 0x74, 0x0,  0x0,  0xc0, 0xff, 0xff, 0xff, 0x20, 0x0,  0x0,  0x0,  0x8,  0x0,  0x0,  0x0,  0x0,
    0x0,  0x0,  0x20, 0x12, 0x0,  0x0,  0x0,  0x53, 0x69, 0x67, 0x6e, 0x61, 0x6c, 0x46, 0x66, 0x74, 0x41, 0x75, 0x74, 0x6f, 0x53,
    0x63, 0x61, 0x6c, 0x65, 0x0,  0x0,  0xc,  0x0,  0xc,  0x0,  0xb,  0x0,  0x0,  0x0,  0x0,  0x0,  0x4,  0x0,  0xc,  0x0,  0x0,
    0x0,  0x16, 0x0,  0x0,  0x0,  0x0,  0x0,  0x0,  0x16, 0xc,  0x0,  0x10, 0x0,  0xf,  0x0,  0x8,  0x0,  0x0,  0x0,  0x4,  0x0,
    0xc,  0x0,  0x0,  0x0,  0x20, 0x0,  0x0,  0x0,  0x8,  0x0,  0x0,  0x0,  0x0,  0x0,  0x0,  0x20, 0xc,  0x0,  0x0,  0x0,  0x53,
    0x69, 0x67, 0x6e, 0x61, 0x6c, 0x57, 0x69, 0x6e, 0x64, 0x6f, 0x77, 0x0,  0x0,  0x0,  0x0
};

// unsigned char g_audio_preprocessor_int8_model_data[8772];
